{
  "vocab": {
    "<PAD>": 0,
    "<UNK>": 1,
    "<BOS>": 2,
    "<EOS>": 3,
    "<MASK>": 4,
    "\u0000": 5,
    "\u0001": 6,
    "\u0002": 7,
    "\u0003": 8,
    "\u0004": 9,
    "\u0005": 10,
    "\u0006": 11,
    "\u0007": 12,
    "\b": 13,
    "\t": 14,
    "\n": 15,
    "\u000b": 16,
    "\f": 17,
    "\r": 18,
    "\u000e": 19,
    "\u000f": 20,
    "\u0010": 21,
    "\u0011": 22,
    "\u0012": 23,
    "\u0013": 24,
    "\u0014": 25,
    "\u0015": 26,
    "\u0016": 27,
    "\u0017": 28,
    "\u0018": 29,
    "\u0019": 30,
    "\u001a": 31,
    "\u001b": 32,
    "\u001c": 33,
    "\u001d": 34,
    "\u001e": 35,
    "\u001f": 36,
    " ": 37,
    "!": 38,
    "\"": 39,
    "#": 40,
    "$": 41,
    "%": 42,
    "&": 43,
    "'": 44,
    "(": 45,
    ")": 46,
    "*": 47,
    "+": 48,
    ",": 49,
    "-": 50,
    ".": 51,
    "/": 52,
    "0": 53,
    "1": 54,
    "2": 55,
    "3": 56,
    "4": 57,
    "5": 58,
    "6": 59,
    "7": 60,
    "8": 61,
    "9": 62,
    ":": 63,
    ";": 64,
    "<": 65,
    "=": 66,
    ">": 67,
    "?": 68,
    "@": 69,
    "A": 70,
    "B": 71,
    "C": 72,
    "D": 73,
    "E": 74,
    "F": 75,
    "G": 76,
    "H": 77,
    "I": 78,
    "J": 79,
    "K": 80,
    "L": 81,
    "M": 82,
    "N": 83,
    "O": 84,
    "P": 85,
    "Q": 86,
    "R": 87,
    "S": 88,
    "T": 89,
    "U": 90,
    "V": 91,
    "W": 92,
    "X": 93,
    "Y": 94,
    "Z": 95,
    "[": 96,
    "\\": 97,
    "]": 98,
    "^": 99,
    "_": 100,
    "`": 101,
    "a": 102,
    "b": 103,
    "c": 104,
    "d": 105,
    "e": 106,
    "f": 107,
    "g": 108,
    "h": 109,
    "i": 110,
    "j": 111,
    "k": 112,
    "l": 113,
    "m": 114,
    "n": 115,
    "o": 116,
    "p": 117,
    "q": 118,
    "r": 119,
    "s": 120,
    "t": 121,
    "u": 122,
    "v": 123,
    "w": 124,
    "x": 125,
    "y": 126,
    "z": 127,
    "{": 128,
    "|": 129,
    "}": 130,
    "~": 131,
    "": 132,
    "": 133,
    "": 134,
    "": 135,
    "": 136,
    "": 137,
    "": 138,
    "": 139,
    "": 140,
    "": 141,
    "": 142,
    "": 143,
    "": 144,
    "": 145,
    "": 146,
    "": 147,
    "": 148,
    "": 149,
    "": 150,
    "": 151,
    "": 152,
    "": 153,
    "": 154,
    "": 155,
    "": 156,
    "": 157,
    "": 158,
    "": 159,
    "": 160,
    "": 161,
    "": 162,
    "": 163,
    "": 164,
    " ": 165,
    "¡": 166,
    "¢": 167,
    "£": 168,
    "¤": 169,
    "¥": 170,
    "¦": 171,
    "§": 172,
    "¨": 173,
    "©": 174,
    "ª": 175,
    "«": 176,
    "¬": 177,
    "­": 178,
    "®": 179,
    "¯": 180,
    "°": 181,
    "±": 182,
    "²": 183,
    "³": 184,
    "´": 185,
    "µ": 186,
    "¶": 187,
    "·": 188,
    "¸": 189,
    "¹": 190,
    "º": 191,
    "»": 192,
    "¼": 193,
    "½": 194,
    "¾": 195,
    "¿": 196,
    "À": 197,
    "Á": 198,
    "Â": 199,
    "Ã": 200,
    "Ä": 201,
    "Å": 202,
    "Æ": 203,
    "Ç": 204,
    "È": 205,
    "É": 206,
    "Ê": 207,
    "Ë": 208,
    "Ì": 209,
    "Í": 210,
    "Î": 211,
    "Ï": 212,
    "Ð": 213,
    "Ñ": 214,
    "Ò": 215,
    "Ó": 216,
    "Ô": 217,
    "Õ": 218,
    "Ö": 219,
    "×": 220,
    "Ø": 221,
    "Ù": 222,
    "Ú": 223,
    "Û": 224,
    "Ü": 225,
    "Ý": 226,
    "Þ": 227,
    "ß": 228,
    "à": 229,
    "á": 230,
    "â": 231,
    "ã": 232,
    "ä": 233,
    "å": 234,
    "æ": 235,
    "ç": 236,
    "è": 237,
    "é": 238,
    "ê": 239,
    "ë": 240,
    "ì": 241,
    "í": 242,
    "î": 243,
    "ï": 244,
    "ð": 245,
    "ñ": 246,
    "ò": 247,
    "ó": 248,
    "ô": 249,
    "õ": 250,
    "ö": 251,
    "÷": 252,
    "ø": 253,
    "ù": 254,
    "ú": 255,
    "û": 256,
    "ü": 257,
    "ý": 258,
    "þ": 259,
    "ÿ": 260,
    " Ð": 261,
    "Ð¾": 262,
    "Ðµ": 263,
    "Ð¸": 264,
    "Ð°": 265,
    "Ð½": 266,
    "Ñ": 267,
    "Ñ": 268,
    "Ð¾Ð": 269,
    "Ñ": 270,
    "Ð»": 271,
    "Ñ": 272,
    "Ðº": 273,
    "Ñ": 274,
    "Ð²": 275,
    "Ñ": 276,
    "ÑÑ": 277,
    "Ð¼": 278,
    "Ð·": 279,
    "ÐµÐ½": 280,
    "Ñ": 281,
    "  ": 282,
    " Ð¸": 283,
    "Ñ": 284,
    "Ð´": 285,
    " Ð¿": 286,
    "Ð±": 287,
    "ÑÐ°": 288,
    "ÐµÑ": 289,
    " Ð½": 290,
    " Ð²": 291,
    "Ð»Ð¸": 292,
    "Ñ": 293,
    " Ð¾": 294,
    "Ð¾Ð²": 295,
    " Ñ": 296,
    "Ð¹": 297,
    "ÐµÑ": 298,
    "Ð¾Ð´": 299,
    "Ð½Ñ": 300,
    "Ð¾Ð³": 301,
    " Ð¼": 302,
    "Ð°Ð½": 303,
    "   ": 304,
    " Ð´": 305,
    "Ð¾Ð»": 306,
    "Ð¿": 307,
    "Ð¾Ð¼": 308,
    "Ñ": 309,
    "ÐµÐ½Ð¸": 310,
    "Ñ": 311,
    "Ð³": 312,
    " Ðº": 313,
    " Ð½Ð°": 314,
    "Ð¶": 315,
    "ÑÐº": 316,
    "Ð¾Ð³Ð¾": 317,
    "ÑÐµ": 318,
    " Ð±": 319,
    "Ñ": 320,
    "Ð¾Ñ": 321,
    "ÑÑÐ²": 322,
    "ÑÐµ": 323,
    "Ð¾Ð½": 324,
    "Ð»Ñ": 325,
    "Ð½Ð¾": 326,
    " Ð¾Ð±": 327,
    "ÑÐ¸": 328,
    "Ñ": 329,
    "Ð½Ð°": 330,
    "ÑÑ": 331,
    "Ð°Ñ": 332,
    "Ð¸Ñ": 333,
    "ÑÐµ": 334,
    "Ð¸Ð¼": 335,
    "Ñ": 336,
    "Ð°Ð»": 337,
    "Ð¾Ñ": 338,
    "Ð¾Ð¹": 339,
    " Ð³": 340,
    "ÐµÐ½Ð¸Ðµ": 341,
    " Ð¸Ð·": 342,
    "Ð°Ðº": 343,
    " Ð¿Ñ": 344,
    " Ð°": 345,
    "Ð¾Ð¶": 346,
    " Ð½Ðµ": 347,
    "Ñ": 348,
    "Ð°Ñ": 349,
    "ÐµÐº": 350,
    "Ð¾Ñ": 351,
    " Ð·": 352,
    "Ð°Ð½Ð¸": 353,
    "Ð½Ð¾Ð³Ð¾": 354,
    "ÐµÐ½Ð¸Ñ": 355,
    "Ð½ÑÑ": 356,
    "Ð½ÑÐµ": 357,
    "ÑÐ°": 358,
    "Ð¸Ð½": 359,
    "ÐºÐ¸": 360,
    "ÑÑÐ¸": 361,
    " ÑÐ°": 362,
    "ÐµÑÑÑ": 363,
    "ÑÑ": 364,
    "Ð°Ñ": 365,
    ".\n": 366,
    "Ð»Ð°": 367,
    " Ñ": 368,
    "Ð·Ð²": 369,
    "ÐµÐ¹": 370,
    "Ð²Ð¸": 371,
    " Ð": 372,
    "ÑÐµÑÐº": 373,
    "Ð´Ðµ": 374,
    "ÐµÑÑÐ²": 375,
    "ÐµÐ¼": 376,
    " Ð¿Ð¾": 377,
    " Ñ": 378,
    "ÑÐ¾": 379,
    " Ð±Ñ": 380,
    " Ð¿Ð¾Ð´": 381,
    ",\n": 382,
    " Ð¾Ñ": 383,
    " Ð¸Ñ": 384,
    "Ð¿Ð¾Ð»": 385,
    " ÑÑ": 386,
    "Ð¸Ñ": 387,
    "ÐºÐ°": 388,
    "ÑÐ¾Ð²": 389,
    " Ñ": 390,
    "Ð¸Ð¹": 391,
    " ÐºÐ°": 392,
    "Ð¶Ð´": 393,
    "Ð²Ð°": 394,
    " Ñ": 395,
    "Ð»Ñ": 396,
    "Ð¾ÑÑ": 397,
    "ÑÑ": 398,
    " â": 399,
    " â": 400,
    " â": 401,
    " Ð¸Ð½": 402,
    "ÐµÑÐ¾Ð´": 403,
    "ÑÑ": 404,
    "Ð¸ÑÑ": 405,
    "Ð¾Ð±": 406,
    " Ð±Ð¸": 407,
    "Ð¸ÑÐµÑÐº": 408,
    "Ð¾Ð¿": 409,
    "ÑÐ°Ð±": 410,
    "Ð·Ñ": 411,
    "Ð": 412,
    "Ð¾Ð½Ð¾Ð¼": 413,
    "Ð½Ð¾Ð¹": 414,
    "ÑÐ¸Ð¸": 415,
    "Ð°ÑÑ": 416,
    "Ð·Ð¸": 417,
    " Ð²Ñ": 418,
    " Ð¡": 419,
    " Ð": 420,
    "ÑÐ¸": 421,
    "ÑÐ´": 422,
    "Ð»Ð¸Ñ": 423,
    "Ð»Ð¸ÑÑ": 424,
    " Ñ": 425,
    " Ñ": 426,
    " Ð¸ÑÐ¿Ð¾Ð»": 427,
    " Ð¸ÑÐ¿Ð¾Ð»Ñ": 428,
    " Ð¸ÑÐ¿Ð¾Ð»ÑÐ·": 429,
    " Ð¸ÑÐ¿Ð¾Ð»ÑÐ·Ñ": 430,
    "Ð¸Ðµ": 431,
    " Ð¼ÐµÑÐ¾Ð´": 432,
    " Ð´Ð»Ñ": 433,
    " Ð´Ð°Ð½": 434,
    " Ð´Ð°Ð½Ð½ÑÑ": 435,
    " Ð": 436,
    "ÑÐ½": 437,
    "Ð½ÑÐ¼": 438,
    "Ð¾Ð·": 439,
    "ÐµÑÐ¸": 440,
    "Ð¼ÐµÐ½": 441,
    " Ð¸Ð¼": 442,
    "ÑÐ°Ð±Ð¾Ñ": 443,
    " ÑÐ·Ñ": 444,
    "ÑÑ": 445,
    "ÑÑ": 446,
    "ÑÑÐµÑÑÐ²": 447,
    " ÑÐµ": 448,
    " Ð°Ð½Ð°": 449,
    " Ð°Ð½Ð°Ð»Ð¸": 450,
    "Ð³Ð°": 451,
    "ÑÐ¶": 452,
    " ÑÐ²": 453,
    "Ð²ÐµÑ": 454,
    " Ð²Ðµ": 455,
    " Ð¾Ð´": 456,
    "ÐºÐµ": 457,
    " Ð¼Ðµ": 458,
    "Ð»ÐµÐ½": 459,
    " Ð": 460,
    " Ð·Ð°Ðº": 461,
    "ÐºÑ": 462,
    " Ð»": 463,
    " Ð¾Ð±ÑÑ": 464,
    "Ð»ÐµÐº": 465,
    "Ð¾Ðº": 466,
    "Ð¾ÑÐ¼": 467,
    " ÑÐµ": 468,
    " ÑÐ·ÑÐºÐ°": 469,
    "Ð°Ð½Ð¸Ñ": 470,
    " ÑÐ°Ð·Ð²": 471,
    " ÑÐ°Ð·Ð²Ð¸Ñ": 472,
    "ÑÐ¾Ñ": 473,
    "Ð·Ð°": 474,
    " n": 475,
    "ÑÐ½": 476,
    " Ð¿ÑÐ¾": 477,
    "Ð½ÑÐ¹": 478,
    "Ð¾Ð»Ðµ": 479,
    "Ð°Ð»Ñ": 480,
    "Ñ": 481,
    "ÑÐ°ÑÑ": 482,
    "ÑÐ°ÑÑÐ»Ð¸": 483,
    "Ð¸Ñ": 484,
    "Ð·Ð½Ð°": 485,
    " ÑÑÐ¾": 486,
    " Ð±ÑÐ»": 487,
    "ÑÐµ": 488,
    "ÑÐ°Ð½": 489,
    " Ð¶": 490,
    "Ð¾Ðµ": 491,
    "ÐµÑÐµ": 492,
    "Ð¿ÑÐ°": 493,
    "Ð²Ðµ": 494,
    "ÑÐ¹": 495,
    " ÑÐµÑ": 496,
    " Ð¾Ð±Ð»Ð°": 497,
    "ÑÑÐ²ÐµÐ½": 498,
    " Ð¸Ð½ÑÐµ": 499,
    "ÑÐ°": 500,
    "Ð¾ÑÐ°": 501,
    " Ð¼ÐµÑÐ¾Ð´Ñ": 502,
    " Ð¾Ð±ÑÑÐµÐ½Ð¸Ñ": 503,
    "ÑÐ¾Ð½": 504,
    " ÑÐµÑ": 505,
    "ÑÐµÐ´": 506,
    "Ð°Ð²": 507,
    "ÑÐµÐ»Ñ": 508,
    "Ð»ÑÐ½": 509,
    "Ð¾Ð»Ð¾Ð³": 510,
    "Ð¾Ð»Ð¾Ð³Ð¸ÑÐµÑÐº": 511,
    "Ð¼Ð¸": 512,
    "Ð´ÐµÐ½Ð¸Ðµ": 513,
    "ÑÐ±": 514,
    "Ð½Ð¾ÑÑÐ¸": 515,
    "Ð": 516,
    "Ð»Ðµ": 517,
    " Ð¿ÑÐ¸": 518,
    " Ð¾Ð±ÑÐ°Ð±Ð¾Ñ": 519,
    " Ðµ": 520,
    " ÐµÑÑ": 521,
    "ÑÑÐ²Ð¾": 522,
    "ÐºÐ¾Ð½Ð¾Ð¼": 523,
    "ÑÑ": 524,
    "ÐºÑ": 525,
    "Ð½Ðµ": 526,
    "ÑÐ¾ÑÑ": 527,
    " Ð±Ð¸Ð±": 528,
    " Ð±Ð¸Ð±Ð»Ð¸": 529,
    " Ð±Ð¸Ð±Ð»Ð¸Ð¾": 530,
    " Ð±Ð¸Ð±Ð»Ð¸Ð¾ÑÐµ": 531,
    "mp": 532,
    "Ð»ÑÐµÑÑÑ": 533,
    " ÑÑÐ½": 534,
    " ÑÑÐ½Ðº": 535,
    "on": 536,
    " ÐÐ¾Ð¶": 537,
    "ÑÐµÑ": 538,
    "Ð¾Ð´Ð°": 539,
    "ÑÐ»Ñ": 540,
    " Ð¸Ð»Ð¸": 541,
    "Ð¡": 542,
    " Ñ": 543,
    " Ð ": 544,
    "ÑÐ°ÑÐ¸Ð¸": 545,
    " Ð¸Ð¼ÑÑÐµÑÑÐ²": 546,
    "Ð»Ñ": 547,
    "Ð¾ÑÑÐ´": 548,
    " ÑÐµÐ³": 549,
    "ÑÐ¾Ñ": 550,
    "Ð¸Ñ": 551,
    " Ð·Ð°": 552,
    " Ð°Ð½Ð°Ð»Ð¸Ð·": 553,
    "Ð¸ÑÐµÑÐºÐ¸Ð¹": 554,
    "Ð±ÑÑ": 555,
    "Ð±ÑÑÐ³": 556,
    " ÑÐ°Ð·": 557,
    "Ð»Ñ": 558,
    "Ð·Ð²Ð¾Ð´": 559,
    "ÑÐ¾Ð²Ð°ÑÑ": 560,
    "Ð»Ð¸Ñ": 561,
    "Ð¾ÑÐ¼Ð°": 562,
    "ÑÐµ": 563,
    "ÑÐ°ÑÑÐ»Ð¸Ð²": 564,
    " ÑÐµÐ¼": 565,
    " ÑÐµÐ¼Ñ": 566,
    "ÑÐ¾Ð¶": 567,
    " Ð´ÑÑ": 568,
    " Ð½ÐµÑ": 569,
    "-Ñ": 570,
    " Ð´Ð¾Ð¼": 571,
    " Ð´Ð¾Ð¼Ðµ": 572,
    " Ð": 573,
    " ÐÐ±": 574,
    "Ð°Ð½Ñ": 575,
    " Ð¶Ð°Ñ": 576,
    " Ð¶Ð°ÑÐº": 577,
    " ÑÐµ": 578,
    " ÑÐµÐ»": 579,
    " ÑÐµÐ»Ð¾Ð²": 580,
    " ÑÐ²Ð¾": 581,
    " ÐºÐ¾Ñ": 582,
    "Ð°Ð½Ð¸Ð¼": 583,
    " Ð¿ÐµÑÐµ": 584,
    "ÑÐ¸Ð¼": 585,
    "Ð¾ÑÑÐ¸": 586,
    " Ð¾ÑÐ¿ÑÐ°": 587,
    "Ð²Ð¸Ð»": 588,
    " Ð¼Ð¾ÑÑ": 589,
    "ÑÐ½Ð¾": 590,
    " ÑÐ°": 591,
    " Ð½ÐµÐ±": 592,
    " ÐÐ¾": 593,
    " ÐÐ¾ÑÐº": 594,
    "ÐµÐ½Ñ": 595,
    " Ð»ÐµÑ": 596,
    " Ð¿Ð°Ñ": 597,
    " Ð¼Ð°Ð»": 598,
    " Ñ": 599,
    " ÑÐ¾ÑÑ": 600,
    "Ð¿Ð¸Ñ": 601,
    "Ð": 602,
    "ÐÐ°": 603,
    "ÑÐ¸Ð½": 604,
    "Ð½Ð¾Ðµ": 605,
    " ÑÑÐ¾": 606,
    " Ð¾Ð±Ð»Ð°ÑÑ": 607,
    "ÑÐºÑ": 608,
    "ÑÐºÑÑ": 609,
    "ÑÐºÑÑÑÑÐ²ÐµÐ½": 610,
    " Ð¸Ð½ÑÐµÐ»": 611,
    " Ð¸Ð½ÑÐµÐ»Ð»ÐµÐº": 612,
    " ÐºÐ¾Ð¼": 613,
    " ÑÐ¸ÑÑ": 614,
    " ÑÐ¸ÑÑÐµÐ¼": 615,
    "ÑÐ¾Ð½Ð½ÑÐµ": 616,
    " ÑÐµÑÐ¸": 617,
    "ÑÐµÐ´ÑÑ": 618,
    " ÑÐ¾Ð±": 619,
    "ÑÐ¸Ñ": 620,
    " Ð¼Ð¾Ð´": 621,
    "Ð´Ð¾": 622,
    "ÑÐ½": 623,
    " Ð½ÐµÐ¹": 624,
    "Ð½ÑÐ¼Ð¸": 625,
    "Ð¾Ð»Ð¾Ð²": 626,
    "Ð¾Ð»Ð¾Ð²Ð½Ð¾Ð³Ð¾": 627,
    " Ð¼ÐµÑ": 628,
    " Ð¼ÐµÑÐ°Ð½Ð¸": 629,
    "ÑÐ²Ð°": 630,
    "ÑÐ¾Ð¼": 631,
    "Ð½Ð¾Ð¼": 632,
    " ÑÑÐ±": 633,
    "Ð½Ñ": 634,
    "ÑÐµÐ´Ðµ": 635,
    "Ð¶Ð´Ð°": 636,
    "Ð¾Ð²ÑÐµ": 637,
    "Ð¾Ð²ÑÐµÐ¼ÐµÐ½": 638,
    " ÑÐ¾": 639,
    "ÑÐ½Ð¾": 640,
    " Ð¿Ð¾Ð»": 641,
    "Ð¾Ð¶ÐµÐ½Ð¸Ðµ": 642,
    "ÑÐ»Ñ": 643,
    "Ð³Ð¾Ñ": 644,
    " Ð¸ÑÐ¿Ð¾Ð»ÑÐ·ÑÑÑ": 645,
    " Ð¸Ð·Ð²": 646,
    "Ð²Ð¾Ð»": 647,
    "ÑÐ¸Ð¾Ð½": 648,
    " ÐµÑÑÐµÑÑÐ²": 649,
    " ÐµÑÑÐµÑÑÐ²ÐµÐ½": 650,
    " ÐµÑÑÐµÑÑÐ²ÐµÐ½Ð½Ð¾Ð³Ð¾": 651,
    "Ð½Ð¸Ð¼": 652,
    "Ð»Ð¾": 653,
    " Ð½Ð¾Ð²": 654,
    " Ð¿Ð¾Ð´Ð´": 655,
    " Ð¿Ð¾Ð´Ð´ÐµÑ": 656,
    " Ð¿Ð¾Ð´Ð´ÐµÑÐ¶": 657,
    " ÑÐºÐ¾Ð½Ð¾Ð¼": 658,
    " ÑÐºÐ¾Ð½Ð¾Ð¼Ð¸": 659,
    " ÑÐºÐ¾Ð½Ð¾Ð¼Ð¸ÐºÐ¸": 660,
    "ÑÑÐ²Ð°": 661,
    " ÑÐ°Ð·Ð²Ð¸ÑÐ¸Ðµ": 662,
    " Ð¸Ð½Ñ": 663,
    "ÑÑÐºÑ": 664,
    "ÑÐ°": 665,
    " ÐºÐ¾Ð½": 666,
    "ÑÐµÑ": 667,
    "ÑÐµÑÐµÐ½": 668,
    "Ð¼Ð°Ñ": 669,
    " Ð²Ð¾Ð¿": 670,
    " Ð²Ð¾Ð¿ÑÐ¾ÑÑ": 671,
    "Ð½Ð¸": 672,
    "Ð¾Ð³Ð¾Ð²": 673,
    "Ð¾Ð³Ð¾Ð²Ð¾Ñ": 674,
    "ÑÑ": 675,
    "Ð": 676,
    "Ð°Ð½Ð¾Ð²": 677,
    " Ð±Ð¸Ð±Ð»Ð¸Ð¾ÑÐµÐºÐ¸": 678,
    "Ð¹ÑÐµ": 679,
    "Ð´Ñ": 680,
    " i": 681,
    "st": 682,
    " nu": 683,
    " nump": 684,
    " numpy": 685,
    "ÑÐ¸": 686,
    " Ð¿Ð¾Ð¼": 687,
    " Ð¿Ð¾Ð¼Ð¾": 688,
    " Ð¿Ð¾Ð¼Ð¾Ñ": 689,
    " Ð¿Ð¾Ð¼Ð¾ÑÑ": 690,
    " Ð¿Ð¾Ð¼Ð¾ÑÑÑ": 691,
    " np": 692,
    "Ð°Ð½Ð¸Ðµ": 693,
    " Ð¼Ð°": 694,
    "ÑÑ": 695,
    "ÑÑÐ¸": 696,
    " Ð¾Ñ": 697,
    " Ð¾ÑÑÑÐµÑÑÐ²": 698,
    " Ð¾ÑÑÑÐµÑÑÐ²Ð»ÑÐµÑÑÑ": 699,
    "()": 700,
    "().": 701,
    " r": 702,
    " re": 703,
    " P": 704,
    "ÐÑÐ¸": 705,
    "Ð²ÐµÑ": 706,
    " Ð": 707,
    " ÐÐ¾Ð¶ÐµÑ": 708,
    "ÑÑ": 709,
    " Ñ": 710,
    "Ð¾Ñ": 711,
    "Ð¾ÑÐ¸": 712,
    "ÑÐ¾Ð´": 713,
    " Ð²Ñ": 714,
    " Ð²ÑÑ": 715,
    "Ð¾ÑÑ": 716,
    "Ð¾ÑÑÐ¸Ð¹": 717,
    "Ð¾ÑÑÐ¸Ð¹ÑÐº": 718,
    " Ð¤": 719,
    " Ð¤Ðµ": 720,
    " Ð¤ÐµÐ´Ðµ": 721,
    " ÑÑÐ¶": 722,
    " Ð¸Ð¼ÑÑÐµÑÑÐ²Ð°": 723,
    "Ð»ÐµÐ½Ð¸Ñ": 724,
    " Ð°Ñ": 725,
    "Ð²Ð¸Ð¶": 726,
    " Ð·Ð°ÐºÐ»Ñ": 727,
    " Ð·Ð°ÐºÐ»ÑÑ": 728,
    " Ð·Ð°ÐºÐ»ÑÑÑÐ½": 729,
    "ÑÐ¾Ðº": 730,
    " Ð±Ð¾Ð»Ðµ": 731,
    " Ð±Ð¾Ð»ÐµÐµ": 732,
    " Ð³Ð¾ÑÑÐ´": 733,
    " Ð³Ð¾ÑÑÐ´Ð°Ñ": 734,
    " ÑÐµÐ³Ð¸ÑÑ": 735,
    " ÑÐµÐ³Ð¸ÑÑÑÐ°ÑÐ¸Ð¸": 736,
    "Ð°ÐµÑÑÑ": 737,
    "Ð¾Ð¼ÐµÐ½": 738,
    "ÑÐµÑÐ¸": 739,
    "ÑÐµÑÐ¸Ð°Ð»Ñ": 740,
    "Ð½Ð°Ñ": 741,
    " ÑÐ°Ðº": 742,
    " ÑÐ°ÐºÑÐ¾Ñ": 743,
    " ÑÐ°Ð·Ð²Ð¸ÑÐ¸Ñ": 744,
    " Ð·Ð°Ð±": 745,
    " Ð·Ð°Ð±Ð¾Ð»Ðµ": 746,
    " Ð·Ð°Ð±Ð¾Ð»ÐµÐ²": 747,
    "ÑÐ»ÑÑ": 748,
    "Ð¾Ð»Ñ": 749,
    " Ð´Ð¸": 750,
    " Ð´Ð¸Ð°": 751,
    " Ð¾Ð±Ñ": 752,
    "ÑÑÑ": 753,
    "Ð¾Ñ": 754,
    " Ð": 755,
    "Ð¾Ð»Ð¸": 756,
    " Ð³Ð¾Ñ": 757,
    "ÐÐµÑ": 758,
    "ÐÐµÑÐµÑ": 759,
    "ÐÐµÑÐµÑÐ±ÑÑÐ³": 760,
    " ÐÐ¾Ð²": 761,
    "Ð°Ð·": 762,
    "Ð·Ð²Ð¾Ð´Ð½ÑÐµ": 763,
    " ÑÐ°Ð·Ð»Ð¸Ñ": 764,
    " ÑÐ°Ð·Ð»Ð¸ÑÐ½ÑÑ": 765,
    " Ð¸Ð·Ñ": 766,
    " Ð¸Ð·ÑÑÐ°": 767,
    " Ð¿ÑÐ¾Ð¸": 768,
    " ÑÐ°Ñ": 769,
    " Ð°Ð²": 770,
    "Ð»ÐµÐ¹": 771,
    "Ð´Ð°": 772,
    "ÑÑ": 773,
    "ÑÑÐ°Ñ": 774,
    "ÐÑÐµ": 775,
    " ÑÑÐ°ÑÑÐ»Ð¸Ð²": 776,
    " ÑÑÐ°ÑÑÐ»Ð¸Ð²Ñ": 777,
    " ÑÑÐ°ÑÑÐ»Ð¸Ð²ÑÐµ": 778,
    " ÑÐµÐ¼ÑÐ¸": 779,
    " Ð¿Ð¾ÑÐ¾Ð¶": 780,
    " Ð¿Ð¾ÑÐ¾Ð¶Ð¸": 781,
    " Ð´ÑÑÐ³": 782,
    " Ð´ÑÑÐ³Ð°": 783,
    " ÐºÐ°Ð¶Ð´": 784,
    " ÐºÐ°Ð¶Ð´Ð°Ñ": 785,
    " Ð½ÐµÑÑÐ°ÑÑÐ»Ð¸Ð²": 786,
    " Ð½ÐµÑÑÐ°ÑÑÐ»Ð¸Ð²Ð°Ñ": 787,
    " ÑÐµÐ¼ÑÑ": 788,
    " Ð½ÐµÑÑÐ°ÑÑÐ»Ð¸": 789,
    " Ð½ÐµÑÑÐ°ÑÑÐ»Ð¸Ð²Ð°": 790,
    "-ÑÐ²": 791,
    "-ÑÐ²Ð¾": 792,
    "-ÑÐ²Ð¾ÐµÐ¼": 793,
    "-ÑÐ²Ð¾ÐµÐ¼Ñ": 794,
    " ÐÑ": 795,
    " ÐÑÑ": 796,
    " ÑÐ¼": 797,
    " ÑÐ¼Ðµ": 798,
    " ÑÐ¼ÐµÑ": 799,
    " ÑÐ¼ÐµÑÐ°Ð»": 800,
    " ÑÐ¼ÐµÑÐ°Ð»Ð¾Ñ": 801,
    " ÑÐ¼ÐµÑÐ°Ð»Ð¾ÑÑ": 802,
    " ÐÐ±Ð»": 803,
    " ÐÐ±Ð»Ð¾Ð½": 804,
    " ÐÐ±Ð»Ð¾Ð½ÑÐº": 805,
    " ÐÐ±Ð»Ð¾Ð½ÑÐºÐ¸Ñ": 806,
    " Ð": 807,
    " ÐÐµÐ½": 808,
    " ÐÐµÐ½Ð°": 809,
    " ÑÐ·Ð½Ð°": 810,
    " ÑÐ·Ð½Ð°Ð»Ð°": 811,
    " Ð¼ÑÐ¶": 812,
    " ÑÐ²Ñ": 813,
    " ÑÐ²ÑÐ·Ð¸": 814,
    " Ð±ÑÐ²": 815,
    " Ð±ÑÐ²ÑÐµ": 816,
    " Ð±ÑÐ²ÑÐµÑ": 817,
    " Ð¸Ñ": 818,
    " ÑÑÐ°Ð½": 819,
    " ÑÑÐ°Ð½Ñ": 820,
    " ÑÑÐ°Ð½ÑÑÐ¶": 821,
    " ÑÑÐ°Ð½ÑÑÐ¶ÐµÐ½": 822,
    " ÑÑÐ°Ð½ÑÑÐ¶ÐµÐ½Ðº": 823,
    " ÑÑÐ°Ð½ÑÑÐ¶ÐµÐ½ÐºÐ¾": 824,
    " ÑÑÐ°Ð½ÑÑÐ¶ÐµÐ½ÐºÐ¾Ñ": 825,
    "-Ð³": 826,
    "-Ð³Ñ": 827,
    "-Ð³ÑÐ²ÐµÑ": 828,
    "-Ð³ÑÐ²ÐµÑÐ½": 829,
    "-Ð³ÑÐ²ÐµÑÐ½Ð°Ð½Ñ": 830,
    "-Ð³ÑÐ²ÐµÑÐ½Ð°Ð½ÑÐº": 831,
    "-Ð³ÑÐ²ÐµÑÐ½Ð°Ð½ÑÐºÐ¾Ð¹": 832,
    "Ð": 833,
    " Ð½Ð°Ñ": 834,
    " Ð½Ð°ÑÐ°Ð»": 835,
    " Ð½Ð°ÑÐ°Ð»Ðµ": 836,
    " Ð¸Ñ": 837,
    " Ð¸ÑÐ»Ñ": 838,
    " ÑÑÐµ": 839,
    " ÑÑÐµÐ·Ð²": 840,
    " ÑÑÐµÐ·Ð²Ñ": 841,
    " ÑÑÐµÐ·Ð²ÑÑÐ°": 842,
    " ÑÑÐµÐ·Ð²ÑÑÐ°Ð¹": 843,
    " ÑÑÐµÐ·Ð²ÑÑÐ°Ð¹Ð½Ð¾": 844,
    " Ð¶Ð°ÑÐºÐ¾Ðµ": 845,
    " Ð²ÑÐµ": 846,
    " Ð²ÑÐµÐ¼": 847,
    " Ð²ÑÐµÐ¼Ñ": 848,
    " Ð²ÐµÑ": 849,
    " Ð²ÐµÑÐµÑ": 850,
    " Ð¾Ð´Ð¸Ð½": 851,
    " Ð¼Ð¾Ð»": 852,
    " Ð¼Ð¾Ð»Ð¾Ð´": 853,
    " Ð¼Ð¾Ð»Ð¾Ð´Ð¾Ð¹": 854,
    " ÑÐµÐ»Ð¾Ð²ÐµÐº": 855,
    " Ð²ÑÑÐµ": 856,
    " Ð²ÑÑÐµÐ»": 857,
    " ÑÐ²Ð¾ÐµÐ¹": 858,
    " ÐºÐ°Ð¼": 859,
    " ÐºÐ°Ð¼Ð¾Ñ": 860,
    " ÐºÐ°Ð¼Ð¾ÑÐºÐ¸": 861,
    " ÐºÐ¾ÑÐ¾Ñ": 862,
    " ÐºÐ¾ÑÐ¾ÑÑ": 863,
    " ÐºÐ¾ÑÐ¾ÑÑÑ": 864,
    " Ð½Ð°Ð½Ð¸Ð¼": 865,
    " Ð½Ð°Ð½Ð¸Ð¼Ð°Ð»": 866,
    " Ð¶Ð¸": 867,
    " Ð¶Ð¸Ð»Ñ": 868,
    " Ð¶Ð¸Ð»ÑÑ": 869,
    " Ð¶Ð¸Ð»ÑÑÐ¾Ð²": 870,
    "-Ð¼": 871,
    " Ð¿ÐµÑÐµÑ": 872,
    " Ð¿ÐµÑÐµÑÐ»": 873,
    " Ð¿ÐµÑÐµÑÐ»ÐºÐµ": 874,
    " ÑÐ»Ð¸": 875,
    " ÑÐ»Ð¸Ñ": 876,
    " ÑÐ»Ð¸ÑÑ": 877,
    " Ð¼ÐµÐ´": 878,
    " Ð¼ÐµÐ´Ð»ÐµÐ½": 879,
    " Ð¼ÐµÐ´Ð»ÐµÐ½Ð½Ð¾": 880,
    " ÐºÐ°Ðº": 881,
    " Ð½ÐµÑÐµ": 882,
    " Ð½ÐµÑÐµÑÐ¸Ð¼": 883,
    " Ð½ÐµÑÐµÑÐ¸Ð¼Ð¾ÑÑÐ¸": 884,
    " Ð¾ÑÐ¿ÑÐ°Ð²Ð¸Ð»": 885,
    " Ð¾ÑÐ¿ÑÐ°Ð²Ð¸Ð»ÑÑ": 886,
    "-Ð½": 887,
    "-Ð½Ñ": 888,
    " Ð¼Ð¾ÑÑÑ": 889,
    "Ð": 890,
    "ÐÐ´": 891,
    "ÐÐ´Ð½Ð°": 892,
    "ÐÐ´Ð½Ð°Ð¶Ð´": 893,
    "ÐÐ´Ð½Ð°Ð¶Ð´Ñ": 894,
    " Ð²ÐµÑÐ½Ð¾": 895,
    " Ð²ÐµÑÐ½Ð¾Ñ": 896,
    " ÑÐ°Ñ": 897,
    " Ð½ÐµÐ±Ñ": 898,
    " Ð½ÐµÐ±ÑÐ²": 899,
    " Ð½ÐµÐ±ÑÐ²Ð°Ð»": 900,
    " Ð½ÐµÐ±ÑÐ²Ð°Ð»Ð¾": 901,
    " Ð¶Ð°ÑÐºÐ¾Ð³Ð¾": 902,
    " Ð·Ð°ÐºÐ°Ñ": 903,
    " Ð·Ð°ÐºÐ°ÑÐ°": 904,
    " ÐÐ¾ÑÐºÐ²Ðµ": 905,
    " ÐÐ°Ñ": 906,
    " ÐÐ°ÑÑÐ¸": 907,
    " ÐÐ°ÑÑÐ¸Ð°Ñ": 908,
    " ÐÐ°ÑÑÐ¸Ð°ÑÑ": 909,
    " ÐÐ°ÑÑÐ¸Ð°ÑÑÐ¸Ñ": 910,
    " Ð¿ÑÑÐ´": 911,
    " Ð¿ÑÑÐ´Ð°": 912,
    " Ð¿ÑÑÐ´Ð°Ñ": 913,
    " Ð¿Ð¾Ñ": 914,
    " Ð¿Ð¾ÑÐ²Ð¸": 915,
    " Ð¿Ð¾ÑÐ²Ð¸Ð»Ð¸ÑÑ": 916,
    " Ð´Ð²Ð°": 917,
    " Ð³ÑÐ°": 918,
    " Ð³ÑÐ°Ð¶Ð´": 919,
    " Ð³ÑÐ°Ð¶Ð´Ð°Ð½Ð¸": 920,
    " Ð³ÑÐ°Ð¶Ð´Ð°Ð½Ð¸Ð½Ð°": 921,
    " ÐÐµÑ": 922,
    " ÐÐµÑÐ²": 923,
    " ÐÐµÑÐ²ÑÐ¹": 924,
    " Ð½Ð¸Ñ": 925,
    " Ð¾Ð´ÐµÑ": 926,
    " Ð¾Ð´ÐµÑÑÐ¹": 927,
    " ÑÐµÑÐµÐ½Ñ": 928,
    " ÑÐµÑÐµÐ½ÑÐºÑ": 929,
    " ÑÐµÑÐµÐ½ÑÐºÑÑ": 930,
    " Ð»ÐµÑÐ½": 931,
    " Ð»ÐµÑÐ½Ñ": 932,
    " Ð»ÐµÑÐ½ÑÑ": 933,
    " Ð¿Ð°ÑÑ": 934,
    " Ð¼Ð°Ð»ÐµÐ½Ñ": 935,
    " Ð¼Ð°Ð»ÐµÐ½ÑÐº": 936,
    " Ð¼Ð°Ð»ÐµÐ½ÑÐºÐ¾Ð³Ð¾": 937,
    " ÑÐ¾ÑÑÐ°": 938,
    " ÑÐ¿Ð¸Ñ": 939,
    " ÑÐ¿Ð¸ÑÐ°Ð½": 940,
    " Ð»Ñ": 941,
    " Ð»ÑÑ": 942,
    "ÐÐ°ÑÐ¸Ð½": 943,
    "ÐÐ°ÑÐ¸Ð½Ð½Ð¾Ðµ": 944,
    " Ð¾Ð±ÑÑÐµÐ½Ð¸Ðµ": 945,
    " Ð¾Ð±Ð»Ð°ÑÑÑ": 946,
    " Ð¸ÑÐºÑÑÑÑÐ²ÐµÐ½": 947,
    " Ð¸ÑÐºÑÑÑÑÐ²ÐµÐ½Ð½Ð¾Ð³Ð¾": 948,
    " Ð¸Ð½ÑÐµÐ»Ð»ÐµÐºÑÐ°": 949,
    " ÐºÐ¾ÑÐ¾ÑÐ°": 950,
    " ÐºÐ¾ÑÐ¾ÑÐ°Ñ": 951,
    " Ð¸ÑÐ¿Ð¾Ð»ÑÐ·ÑÐµÑ": 952,
    " ÑÑÐ°Ñ": 953,
    " ÑÑÐ°ÑÐ¸": 954,
    " ÑÑÐ°ÑÐ¸ÑÑÐ¸": 955,
    " ÑÑÐ°ÑÐ¸ÑÑÐ¸ÑÐµÑÐº": 956,
    " ÑÑÐ°ÑÐ¸ÑÑÐ¸ÑÐµÑÐºÐ¸Ðµ": 957,
    " ÐºÐ¾Ð¼Ð¿": 958,
    " ÐºÐ¾Ð¼Ð¿Ñ": 959,
    " ÐºÐ¾Ð¼Ð¿ÑÑÑ": 960,
    " ÐºÐ¾Ð¼Ð¿ÑÑÑÐµÑ": 961,
    " ÐºÐ¾Ð¼Ð¿ÑÑÑÐµÑÐ½ÑÑ": 962,
    " ÐÐµÐ¹": 963,
    " ÐÐµÐ¹ÑÐ¾Ð½Ð½ÑÐµ": 964,
    " Ð¿ÑÐµÐ´ÑÑ": 965,
    " Ð¿ÑÐµÐ´ÑÑÐ°Ð²": 966,
    " Ð¿ÑÐµÐ´ÑÑÐ°Ð²Ð»Ñ": 967,
    " Ð¿ÑÐµÐ´ÑÑÐ°Ð²Ð»ÑÑÑ": 968,
    " ÑÐ¾Ð±Ð¾Ð¹": 969,
    " Ð²ÑÑÐ¸Ñ": 970,
    " Ð²ÑÑÐ¸ÑÐ»Ð¸": 971,
    " Ð²ÑÑÐ¸ÑÐ»Ð¸ÑÐµÐ»Ñ": 972,
    " Ð²ÑÑÐ¸ÑÐ»Ð¸ÑÐµÐ»ÑÐ½ÑÐµ": 973,
    " Ð¼Ð¾Ð´Ðµ": 974,
    " Ð¼Ð¾Ð´ÐµÐ»Ð¸": 975,
    " Ð²Ð´Ð¾": 976,
    " Ð²Ð´Ð¾ÑÐ½": 977,
    " Ð²Ð´Ð¾ÑÐ½Ð¾Ð²": 978,
    " Ð²Ð´Ð¾ÑÐ½Ð¾Ð²Ð»ÑÐ½": 979,
    " Ð²Ð´Ð¾ÑÐ½Ð¾Ð²Ð»ÑÐ½Ð½ÑÐµ": 980,
    " Ð±Ð¸Ð¾Ð»Ð¾Ð³Ð¸ÑÐµÑÐº": 981,
    " Ð±Ð¸Ð¾Ð»Ð¾Ð³Ð¸ÑÐµÑÐºÐ¸Ð¼": 982,
    " Ð±Ð¸Ð¾Ð»Ð¾Ð³Ð¸ÑÐµÑÐºÐ¸Ð¼Ð¸": 983,
    " Ð½ÐµÐ¹ÑÐ¾Ð½": 984,
    " Ð½ÐµÐ¹ÑÐ¾Ð½Ð½ÑÐ¼Ð¸": 985,
    " ÑÐµÑÑ": 986,
    " ÑÐµÑÑÐ¼Ð¸": 987,
    " Ð³Ð¾Ð»Ð¾Ð²Ð½Ð¾Ð³Ð¾": 988,
    " Ð¼Ð¾Ð·": 989,
    " Ð¼Ð¾Ð·Ð³Ð°": 990,
    "Ð": 991,
    "ÐÐ²": 992,
    "ÐÐ²Ð°Ð½Ñ": 993,
    "ÐÐ²Ð°Ð½ÑÐ¾Ð²": 994,
    "ÐÐ²Ð°Ð½ÑÐ¾Ð²Ð°Ñ": 995,
    " Ð¼ÐµÑÐ°Ð½Ð¸ÐºÐ°": 996,
    " Ð¾Ð¿": 997,
    " Ð¾Ð¿Ð¸Ñ": 998,
    " Ð¾Ð¿Ð¸ÑÑÐ²Ð°": 999,
    " Ð¾Ð¿Ð¸ÑÑÐ²Ð°ÐµÑ": 1000,
    " Ð¿Ð¾Ð²": 1001,
    " Ð¿Ð¾Ð²Ðµ": 1002,
    " Ð¿Ð¾Ð²ÐµÐ´ÐµÐ½Ð¸Ðµ": 1003,
    " Ð¼Ð°Ñ": 1004,
    " Ð¼Ð°ÑÐµÑÐ¸": 1005,
    " Ð¼Ð°ÑÐµÑÐ¸Ð¸": 1006,
    " Ð°ÑÐ¾Ð¼": 1007,
    " Ð°ÑÐ¾Ð¼Ð½Ð¾Ð¼": 1008,
    " ÑÑÐ±Ð°Ñ": 1009,
    " ÑÑÐ±Ð°ÑÐ¾Ð¼": 1010,
    " ÑÑÐ±Ð°ÑÐ¾Ð¼Ð½Ð¾Ð¼": 1011,
    " ÑÑÐ¾Ð²": 1012,
    " ÑÑÐ¾Ð²Ð½Ñ": 1013,
    " ÑÑÐ¾Ð²Ð½ÑÑ": 1014,
    " ÐÑ": 1015,
    " ÐÑÐ¸Ð½": 1016,
    " ÐÑÐ¸Ð½ÑÐ¸": 1017,
    " ÐÑÐ¸Ð½ÑÐ¸Ð¿": 1018,
    " Ð½ÐµÐ¾Ð¿": 1019,
    " Ð½ÐµÐ¾Ð¿ÑÐµÐ´Ðµ": 1020,
    " Ð½ÐµÐ¾Ð¿ÑÐµÐ´ÐµÐ»ÑÐ½": 1021,
    " Ð½ÐµÐ¾Ð¿ÑÐµÐ´ÐµÐ»ÑÐ½Ð½Ð¾ÑÑÐ¸": 1022,
    " Ð": 1023,
    " ÐÐµÐ¹": 1024,
    " ÐÐµÐ¹Ð·": 1025,
    " ÐÐµÐ¹Ð·ÐµÐ½": 1026,
    " ÐÐµÐ¹Ð·ÐµÐ½Ð±": 1027,
    " ÐÐµÐ¹Ð·ÐµÐ½Ð±ÐµÑ": 1028,
    " ÐÐµÐ¹Ð·ÐµÐ½Ð±ÐµÑÐ³Ð°": 1029,
    " ÑÑ": 1030,
    " ÑÑÐ²ÐµÑ": 1031,
    " ÑÑÐ²ÐµÑÐ¶Ð´Ð°": 1032,
    " ÑÑÐ²ÐµÑÐ¶Ð´Ð°ÐµÑ": 1033,
    " Ð½ÐµÐ²": 1034,
    " Ð½ÐµÐ²Ð¾Ð·": 1035,
    " Ð½ÐµÐ²Ð¾Ð·Ð¼": 1036,
    " Ð½ÐµÐ²Ð¾Ð·Ð¼Ð¾Ð¶": 1037,
    " Ð½ÐµÐ²Ð¾Ð·Ð¼Ð¾Ð¶Ð½Ð¾": 1038,
    " Ð¾Ð´Ð½": 1039,
    " Ð¾Ð´Ð½Ð¾Ð²ÑÐµÐ¼ÐµÐ½": 1040,
    " Ð¾Ð´Ð½Ð¾Ð²ÑÐµÐ¼ÐµÐ½Ð½Ð¾": 1041,
    " ÑÐ¾ÑÐ½Ð¾": 1042,
    " Ð¸Ð·Ð¼": 1043,
    " Ð¸Ð·Ð¼ÐµÑ": 1044,
    " Ð¸Ð·Ð¼ÐµÑÐ¸Ñ": 1045,
    " Ð¸Ð·Ð¼ÐµÑÐ¸ÑÑ": 1046,
    " Ð¿Ð¾Ð»Ð¾Ð¶ÐµÐ½Ð¸Ðµ": 1047,
    " Ð¸Ð¼Ð¿": 1048,
    " Ð¸Ð¼Ð¿ÑÐ»Ñ": 1049,
    " Ð¸Ð¼Ð¿ÑÐ»ÑÑ": 1050,
    " ÑÐ°ÑÑÐ¸": 1051,
    " ÑÐ°ÑÑÐ¸Ñ": 1052,
    " ÑÐ°ÑÑÐ¸ÑÑ": 1053,
    "ÐÐ»": 1054,
    "ÐÐ»Ð³Ð¾Ñ": 1055,
    "ÐÐ»Ð³Ð¾ÑÐ¸Ñ": 1056,
    "ÐÐ»Ð³Ð¾ÑÐ¸ÑÐ¼": 1057,
    "ÐÐ»Ð³Ð¾ÑÐ¸ÑÐ¼Ñ": 1058,
    " Ð³Ð»": 1059,
    " Ð³Ð»ÑÐ±": 1060,
    " Ð³Ð»ÑÐ±Ð¾Ðº": 1061,
    " Ð³Ð»ÑÐ±Ð¾ÐºÐ¾Ð³Ð¾": 1062,
    " Ð¼Ð½Ð¾Ð³Ð¾": 1063,
    " Ð¼Ð½Ð¾Ð³Ð¾Ñ": 1064,
    " Ð¼Ð½Ð¾Ð³Ð¾ÑÐ»": 1065,
    " Ð¼Ð½Ð¾Ð³Ð¾ÑÐ»Ð¾Ð¹": 1066,
    " Ð¼Ð½Ð¾Ð³Ð¾ÑÐ»Ð¾Ð¹Ð½ÑÐµ": 1067,
    " Ð½ÐµÐ¹ÑÐ¾Ð½Ð½ÑÐµ": 1068,
    " Ð¸Ð·Ð²Ð»Ðµ": 1069,
    " Ð¸Ð·Ð²Ð»ÐµÑ": 1070,
    " Ð¸Ð·Ð²Ð»ÐµÑÐµÐ½Ð¸Ñ": 1071,
    " Ð¿ÑÐ¸Ð·Ð½Ð°": 1072,
    " Ð¿ÑÐ¸Ð·Ð½Ð°Ðº": 1073,
    " Ð¿ÑÐ¸Ð·Ð½Ð°ÐºÐ¾Ð²": 1074,
    " Ð¢": 1075,
    " Ð¢ÑÐ°Ð½": 1076,
    " Ð¢ÑÐ°Ð½Ñ": 1077,
    " Ð¢ÑÐ°Ð½ÑÑ": 1078,
    " Ð¢ÑÐ°Ð½ÑÑÐ¾ÑÐ¼": 1079,
    " Ð¢ÑÐ°Ð½ÑÑÐ¾ÑÐ¼ÐµÑ": 1080,
    " Ð¢ÑÐ°Ð½ÑÑÐ¾ÑÐ¼ÐµÑÑ": 1081,
    " ÑÐµÐ²Ð¾Ð»": 1082,
    " ÑÐµÐ²Ð¾Ð»Ñ": 1083,
    " ÑÐµÐ²Ð¾Ð»ÑÑÐ¸Ð¾Ð½": 1084,
    " ÑÐµÐ²Ð¾Ð»ÑÑÐ¸Ð¾Ð½Ð¸": 1085,
    " ÑÐµÐ²Ð¾Ð»ÑÑÐ¸Ð¾Ð½Ð¸Ð·Ð¸": 1086,
    " ÑÐµÐ²Ð¾Ð»ÑÑÐ¸Ð¾Ð½Ð¸Ð·Ð¸ÑÐ¾Ð²": 1087,
    " ÑÐµÐ²Ð¾Ð»ÑÑÐ¸Ð¾Ð½Ð¸Ð·Ð¸ÑÐ¾Ð²Ð°": 1088,
    " ÑÐµÐ²Ð¾Ð»ÑÑÐ¸Ð¾Ð½Ð¸Ð·Ð¸ÑÐ¾Ð²Ð°Ð»Ð¸": 1089,
    " Ð¾Ð±ÑÐ°Ð±Ð¾ÑÐºÑ": 1090,
    " Ð±Ð»Ð°": 1091,
    " Ð±Ð»Ð°Ð³": 1092,
    " Ð±Ð»Ð°Ð³Ð¾Ð´": 1093,
    " Ð±Ð»Ð°Ð³Ð¾Ð´Ð°Ñ": 1094,
    " Ð±Ð»Ð°Ð³Ð¾Ð´Ð°ÑÑ": 1095,
    " Ð¼ÐµÑÐ°Ð½Ð¸Ð·": 1096,
    " Ð¼ÐµÑÐ°Ð½Ð¸Ð·Ð¼": 1097,
    " Ð¼ÐµÑÐ°Ð½Ð¸Ð·Ð¼Ñ": 1098,
    " Ð²Ð½Ð¸Ð¼": 1099,
    " Ð²Ð½Ð¸Ð¼Ð°Ð½Ð¸Ñ": 1100,
    "ÐÑÐ°": 1101,
    "ÐÑÐ°Ð²Ð¸": 1102,
    "ÐÑÐ°Ð²Ð¸ÑÐµÐ»Ñ": 1103,
    "ÐÑÐ°Ð²Ð¸ÑÐµÐ»ÑÑÑÐ²Ð¾": 1104,
    " Ð¾Ð´Ð¾Ð±": 1105,
    " Ð¾Ð´Ð¾Ð±ÑÐ¸": 1106,
    " Ð¾Ð´Ð¾Ð±ÑÐ¸Ð»Ð¾": 1107,
    " Ð½Ð¾Ð²ÑÐ¹": 1108,
    " Ð¿Ð°Ðº": 1109,
    " Ð¿Ð°ÐºÐµÑ": 1110,
    " Ð¼ÐµÑ": 1111,
    " Ð¿Ð¾Ð´Ð´ÐµÑÐ¶ÐºÐµ": 1112,
    " ÐÐ¸Ð½": 1113,
    " ÐÐ¸Ð½Ð¸ÑÑ": 1114,
    " ÐÐ¸Ð½Ð¸ÑÑÑ": 1115,
    " ÑÐ¸Ð½": 1116,
    " ÑÐ¸Ð½Ð°Ð½": 1117,
    " ÑÐ¸Ð½Ð°Ð½Ñ": 1118,
    " ÑÐ¸Ð½Ð°Ð½ÑÐ¾Ð²": 1119,
    " Ð·Ð°Ñ": 1120,
    " Ð·Ð°ÑÐ²Ð¸Ð»": 1121,
    " Ð²ÑÐ´Ðµ": 1122,
    " Ð²ÑÐ´ÐµÐ»ÐµÐ½": 1123,
    " Ð²ÑÐ´ÐµÐ»ÐµÐ½Ð½ÑÐµ": 1124,
    " ÑÑÐµÐ´": 1125,
    " ÑÑÐµÐ´ÑÑÐ²Ð°": 1126,
    " Ð±ÑÐ´": 1127,
    " Ð±ÑÐ´ÑÑ": 1128,
    " Ð½Ð°Ð¿ÑÐ°": 1129,
    " Ð½Ð°Ð¿ÑÐ°Ð²": 1130,
    " Ð½Ð°Ð¿ÑÐ°Ð²Ð»ÐµÐ½": 1131,
    " Ð½Ð°Ð¿ÑÐ°Ð²Ð»ÐµÐ½Ñ": 1132,
    " Ð¸Ð½ÑÑÐ°": 1133,
    " Ð¸Ð½ÑÑÐ°ÑÑ": 1134,
    " Ð¸Ð½ÑÑÐ°ÑÑÑÑÐºÑ": 1135,
    " Ð¸Ð½ÑÑÐ°ÑÑÑÑÐºÑÑÑ": 1136,
    " Ð¸Ð½ÑÑÐ°ÑÑÑÑÐºÑÑÑÑ": 1137,
    " Ð¿Ð¾Ð´Ð´ÐµÑÐ¶ÐºÑ": 1138,
    " Ð¼Ð°Ð»Ð¾Ð³Ð¾": 1139,
    " Ð±Ð¸Ð·": 1140,
    " Ð±Ð¸Ð·Ð½Ðµ": 1141,
    " Ð±Ð¸Ð·Ð½ÐµÑÐ°": 1142,
    "Ð": 1143,
    "ÐÐ°": 1144,
    " Ð¼ÐµÐ¶Ð´": 1145,
    " Ð¼ÐµÐ¶Ð´Ñ": 1146,
    " Ð¼ÐµÐ¶Ð´ÑÐ½Ð°": 1147,
    " Ð¼ÐµÐ¶Ð´ÑÐ½Ð°Ñ": 1148,
    " Ð¼ÐµÐ¶Ð´ÑÐ½Ð°ÑÐ¾Ð´": 1149,
    " Ð¼ÐµÐ¶Ð´ÑÐ½Ð°ÑÐ¾Ð´Ð½Ð¾Ð¹": 1150,
    " ÐºÐ¾Ð½ÑÐµÑÐµÐ½": 1151,
    " ÐºÐ¾Ð½ÑÐµÑÐµÐ½ÑÐ¸Ð¸": 1152,
    " ÐºÐ»Ð¸": 1153,
    " ÐºÐ»Ð¸Ð¼Ð°Ñ": 1154,
    " ÐºÐ»Ð¸Ð¼Ð°ÑÑ": 1155,
    " Ð¾Ð±Ñ": 1156,
    " Ð¾Ð±ÑÑ": 1157,
    " Ð¾Ð±ÑÑÐ¶Ð´Ð°": 1158,
    " Ð¾Ð±ÑÑÐ¶Ð´Ð°Ð»Ð¸ÑÑ": 1159,
    " ÑÐ½Ð¸": 1160,
    " ÑÐ½Ð¸Ð¶": 1161,
    " ÑÐ½Ð¸Ð¶ÐµÐ½Ð¸Ñ": 1162,
    " Ð²ÑÐ±": 1163,
    " Ð²ÑÐ±ÑÐ¾Ñ": 1164,
    " Ð²ÑÐ±ÑÐ¾ÑÐ¾Ð²": 1165,
    " ÑÐ³": 1166,
    " ÑÐ³Ð»ÐµÐº": 1167,
    " ÑÐ³Ð»ÐµÐºÐ¸Ñ": 1168,
    " ÑÐ³Ð»ÐµÐºÐ¸ÑÐ»": 1169,
    " ÑÐ³Ð»ÐµÐºÐ¸ÑÐ»Ð¾Ð³Ð¾": 1170,
    " Ð³Ð°": 1171,
    " Ð³Ð°Ð·Ð°": 1172,
    " ÐÑÐµÐ´ÑÑ": 1173,
    " ÐÑÐµÐ´ÑÑÐ°": 1174,
    " ÐÑÐµÐ´ÑÑÐ°Ð²Ð¸": 1175,
    " ÐÑÐµÐ´ÑÑÐ°Ð²Ð¸ÑÐµ": 1176,
    " ÐÑÐµÐ´ÑÑÐ°Ð²Ð¸ÑÐµÐ»Ð¸": 1177,
    " ÑÑÑÐ°Ð½": 1178,
    " Ð´Ð¾Ð³Ð¾Ð²Ð¾Ñ": 1179,
    " Ð´Ð¾Ð³Ð¾Ð²Ð¾ÑÐ¸": 1180,
    " Ð´Ð¾Ð³Ð¾Ð²Ð¾ÑÐ¸Ð»Ð¸ÑÑ": 1181,
    " Ð½Ð¾Ð²ÑÑ": 1182,
    " Ñ": 1183,
    " ÑÐµ": 1184,
    " ÑÐµÐ»Ñ": 1185,
    " ÑÐµÐ»ÑÑ": 1186,
    " Ð´ÐµÐº": 1187,
    " Ð´ÐµÐºÐ°Ñ": 1188,
    " Ð´ÐµÐºÐ°ÑÐ±": 1189,
    " Ð´ÐµÐºÐ°ÑÐ±Ð¾Ð½": 1190,
    " Ð´ÐµÐºÐ°ÑÐ±Ð¾Ð½Ð¸": 1191,
    " Ð´ÐµÐºÐ°ÑÐ±Ð¾Ð½Ð¸Ð·Ð°": 1192,
    " Ð´ÐµÐºÐ°ÑÐ±Ð¾Ð½Ð¸Ð·Ð°ÑÐ¸Ð¸": 1193,
    "ÐÐ»Ñ": 1194,
    " ÑÑÑ": 1195,
    " ÑÑÑÐ°Ð½Ð¾Ð²": 1196,
    " ÑÑÑÐ°Ð½Ð¾Ð²ÐºÐ¸": 1197,
    " Ð¸ÑÐ¿Ð¾Ð»ÑÐ·ÑÐ¹ÑÐµ": 1198,
    " ÐºÐ¾Ð¼Ð°Ð½": 1199,
    " ÐºÐ¾Ð¼Ð°Ð½Ð´Ñ": 1200,
    " p": 1201,
    " pi": 1202,
    " pip": 1203,
    " in": 1204,
    " inst": 1205,
    " insta": 1206,
    " instal": 1207,
    " install": 1208,
    " Ð": 1209,
    " ÐÐ¼": 1210,
    " ÐÐ¼Ð¿": 1211,
    " ÐÐ¼Ð¿Ð¾Ñ": 1212,
    " ÐÐ¼Ð¿Ð¾ÑÑÐ¸": 1213,
    " ÐÐ¼Ð¿Ð¾ÑÑÐ¸ÑÑ": 1214,
    " ÐÐ¼Ð¿Ð¾ÑÑÐ¸ÑÑÐ¹ÑÐµ": 1215,
    " Ð¼Ð¾Ð´ÑÐ»Ñ": 1216,
    " imp": 1217,
    " impo": 1218,
    " impor": 1219,
    " import": 1220,
    " a": 1221,
    " as": 1222,
    " Ð¡Ð¾Ð·": 1223,
    " Ð¡Ð¾Ð·Ð´": 1224,
    " Ð¡Ð¾Ð·Ð´Ð°Ð½Ð¸Ðµ": 1225,
    " Ð¼Ð°ÑÑÐ¸": 1226,
    " Ð¼Ð°ÑÑÐ¸Ð²": 1227,
    " Ð¼Ð°ÑÑÐ¸Ð²Ð¾Ð²": 1228,
    " ÑÑÐ½ÐºÑÐ¸": 1229,
    " ÑÑÐ½ÐºÑÐ¸ÐµÐ¹": 1230,
    ".a": 1231,
    ".ar": 1232,
    ".arr": 1233,
    ".arra": 1234,
    ".array": 1235,
    "HT": 1236,
    "HTT": 1237,
    "HTTP": 1238,
    "-Ð·Ð°": 1239,
    "-Ð·Ð°Ð¿": 1240,
    "-Ð·Ð°Ð¿ÑÐ¾ÑÑ": 1241,
    " Ð²ÑÐ¿Ð¾Ð»": 1242,
    " Ð²ÑÐ¿Ð¾Ð»Ð½Ñ": 1243,
    " Ð²ÑÐ¿Ð¾Ð»Ð½ÑÑÑ": 1244,
    " Ð²ÑÐ¿Ð¾Ð»Ð½ÑÑÑÑÑ": 1245,
    " req": 1246,
    " requ": 1247,
    " reque": 1248,
    " request": 1249,
    " requests": 1250,
    " ÐÐµÑÐ¾Ð´": 1251,
    " G": 1252,
    " GE": 1253,
    " GET": 1254,
    " Ð¸ÑÐ¿Ð¾Ð»ÑÐ·ÑÐµÑÑÑ": 1255,
    " Ð¿Ð¾Ð»ÑÑ": 1256,
    " Ð¿Ð¾Ð»ÑÑÐµÐ½Ð¸Ñ": 1257,
    " PO": 1258,
    " POS": 1259,
    " POST": 1260,
    " Ð¾ÑÐ¿ÑÐ°Ð²": 1261,
    " Ð¾ÑÐ¿ÑÐ°Ð²ÐºÐ¸": 1262,
    " ÑÐµÑÐ²ÐµÑ": 1263,
    " ÐÐ±ÑÐ°Ð±Ð¾Ñ": 1264,
    " ÐÐ±ÑÐ°Ð±Ð¾ÑÐºÐ°": 1265,
    " J": 1266,
    " JS": 1267,
    " JSO": 1268,
    " JSON": 1269,
    " Ð¼ÐµÑÐ¾Ð´Ð¾Ð¼": 1270,
    " res": 1271,
    " resp": 1272,
    " respon": 1273,
    " respons": 1274,
    " response": 1275,
    ".j": 1276,
    ".js": 1277,
    ".json": 1278,
    "ÐÑÐ¸Ð²ÐµÑ": 1279,
    " ÐÐ°Ðº": 1280,
    " Ð´Ðµ": 1281,
    " Ð´ÐµÐ»Ð°": 1282,
    " ÐÐ°Ð²": 1283,
    " ÐÐ°Ð²Ð½Ð¾": 1284,
    " Ð²Ð¸": 1285,
    " Ð²Ð¸Ð´Ðµ": 1286,
    " Ð²Ð¸Ð´ÐµÐ»Ð¸ÑÑ": 1287,
    " Ð²ÑÑ": 1288,
    " Ð²ÑÑÑÐµÑ": 1289,
    " Ð²ÑÑÑÐµÑÐ¸Ð¼": 1290,
    " Ð²ÑÑÑÐµÑÐ¸Ð¼ÑÑ": 1291,
    " ÑÑÐ±Ð±": 1292,
    " ÑÑÐ±Ð±Ð¾Ñ": 1293,
    " ÑÑÐ±Ð±Ð¾ÑÑ": 1294,
    " ÐÐ¾Ð³": 1295,
    " ÐÐ¾Ð³Ð¾Ð´Ð°": 1296,
    " Ð¾Ð±Ðµ": 1297,
    " Ð¾Ð±ÐµÑ": 1298,
    " Ð¾Ð±ÐµÑÐ°": 1299,
    " Ð¾Ð±ÐµÑÐ°ÐµÑ": 1300,
    " Ð±ÑÑÑ": 1301,
    " ÑÐ¾Ñ": 1302,
    " ÑÐ¾ÑÐ¾Ñ": 1303,
    " ÑÐ¾ÑÐ¾ÑÐµÐ¹": 1304,
    " ÐÐ¾Ð¶ÐµÐ¼": 1305,
    " Ð¿Ð¾Ð³": 1306,
    " Ð¿Ð¾Ð³ÑÐ»Ñ": 1307,
    " Ð¿Ð¾Ð³ÑÐ»ÑÑÑ": 1308,
    " Ð¿Ð°ÑÐºÐµ": 1309,
    " Ð¿Ð¾ÑÐ¸": 1310,
    " Ð¿Ð¾ÑÐ¸Ð´": 1311,
    " Ð¿Ð¾ÑÐ¸Ð´ÐµÑ": 1312,
    " Ð¿Ð¾ÑÐ¸Ð´ÐµÑÑ": 1313,
    " ÐºÐ°Ñ": 1314,
    " ÐºÐ°ÑÐµ": 1315,
    "Ð¡Ð»": 1316,
    "Ð¡Ð»Ñ": 1317,
    "Ð¡Ð»ÑÑ": 1318,
    "Ð¡Ð»ÑÑÐ°": 1319,
    "Ð¡Ð»ÑÑÐ°Ð¹": 1320,
    " ÑÑÑ": 1321,
    " Ð¿Ð¾Ð´Ñ": 1322,
    " Ð¿Ð¾Ð´ÑÐ¼": 1323,
    " Ð¿Ð¾Ð´ÑÐ¼Ð°Ð»": 1324,
    " Ð½Ð°Ñ": 1325,
    " Ð½Ð°ÑÑ": 1326,
    " Ð½Ð°ÑÑÑ": 1327,
    " Ð½Ð°ÑÑÑÑ": 1328,
    " Ð½Ð°ÑÐµ": 1329,
    " Ð½Ð°ÑÐµÐ³": 1330,
    " Ð½Ð°ÑÐµÐ³Ð¾": 1331,
    " Ð¿ÑÐ¾ÐµÐº": 1332,
    " Ð¿ÑÐ¾ÐµÐºÑÐ°": 1333,
    " ÑÑÐ¾": 1334,
    " ÑÑÐ¾Ð¸Ñ": 1335,
    " Ð¿ÐµÑÐµÑ": 1336,
    " Ð¿ÐµÑÐµÑÐ¼": 1337,
    " Ð¿ÐµÑÐµÑÐ¼Ð¾Ñ": 1338,
    " Ð¿ÐµÑÐµÑÐ¼Ð¾ÑÑÐµÑ": 1339,
    " Ð¿ÐµÑÐµÑÐ¼Ð¾ÑÑÐµÑÑ": 1340,
    " Ð¿Ð¾Ð´ÑÐ¾Ð´": 1341,
    " ÐÐ½Ðµ": 1342,
    " ÐºÐ°Ð¶": 1343,
    " ÐºÐ°Ð¶ÐµÑÑÑ": 1344,
    " Ð¼Ñ": 1345,
    " Ð¼Ð¾Ð³": 1346,
    " Ð¼Ð¾Ð³Ð»Ð¸": 1347,
    " ÑÐ´Ðµ": 1348,
    " ÑÐ´ÐµÐ»": 1349,
    " ÑÐ´ÐµÐ»Ð°ÑÑ": 1350,
    " Ð³Ð¾ÑÐ°": 1351,
    " Ð³Ð¾ÑÐ°Ð·": 1352,
    " Ð³Ð¾ÑÐ°Ð·Ð´Ð¾": 1353,
    " ÑÑ": 1354,
    " ÑÑÑ": 1355,
    " ÑÑÑÐµÐº": 1356,
    " ÑÑÑÐµÐºÑÐ¸": 1357,
    " ÑÑÑÐµÐºÑÐ¸Ð²": 1358,
    " ÑÑÑÐµÐºÑÐ¸Ð²Ð½Ðµ": 1359,
    " ÑÑÑÐµÐºÑÐ¸Ð²Ð½ÐµÐµ": 1360,
    "Ð¡Ð¾Ð³": 1361,
    "Ð¡Ð¾Ð³Ð»Ð°": 1362,
    "Ð¡Ð¾Ð³Ð»Ð°ÑÐ½Ð¾": 1363,
    " ÑÑÐ°ÑÑ": 1364,
    " ÑÑÐ°ÑÑÐµ": 1365,
    "15": 1366,
    "159": 1367,
    " Ð£": 1368,
    " Ð£Ð³": 1369,
    " Ð£Ð³Ð¾Ð»Ð¾Ð²Ð½Ð¾Ð³Ð¾": 1370,
    " ÐºÐ¾Ð´": 1371,
    " ÐºÐ¾Ð´ÐµÐº": 1372,
    " ÐºÐ¾Ð´ÐµÐºÑÐ°": 1373,
    " Ð Ð¾ÑÑÐ¸Ð¹ÑÐº": 1374,
    " Ð Ð¾ÑÑÐ¸Ð¹ÑÐºÐ¾Ð¹": 1375,
    " Ð¤ÐµÐ´ÐµÑÐ°ÑÐ¸Ð¸": 1376,
    " Ð¼Ð¾Ñ": 1377,
    " Ð¼Ð¾ÑÐµÐ½": 1378,
    " Ð¼Ð¾ÑÐµÐ½Ð½Ð¸": 1379,
    " Ð¼Ð¾ÑÐµÐ½Ð½Ð¸ÑÐµ": 1380,
    " Ð¼Ð¾ÑÐµÐ½Ð½Ð¸ÑÐµÑÑÐ²Ð¾": 1381,
    " ÐµÑÑÑ": 1382,
    " ÑÐ¸": 1383,
    " ÑÐ¸Ñ": 1384,
    " ÑÐ¸ÑÐµÐ½Ð¸Ðµ": 1385,
    " ÑÑÐ¶Ð¾Ð³Ð¾": 1386,
    " Ð¿ÑÐ¸Ð¾Ð±": 1387,
    " Ð¿ÑÐ¸Ð¾Ð±ÑÐµÑ": 1388,
    " Ð¿ÑÐ¸Ð¾Ð±ÑÐµÑÐµÐ½Ð¸Ðµ": 1389,
    " Ð¿ÑÐ°": 1390,
    " Ð¿ÑÐ°Ð²Ð°": 1391,
    " ÑÑÐ¶Ð¾Ðµ": 1392,
    " Ð¸Ð¼ÑÑÐµÑÑÐ²Ð¾": 1393,
    " Ð¿ÑÑ": 1394,
    " Ð¿ÑÑÑ": 1395,
    " Ð¿ÑÑÑÐ¼": 1396,
    " Ð¾Ð±Ð¼": 1397,
    " Ð¾Ð±Ð¼Ð°Ð½": 1398,
    " Ð¾Ð±Ð¼Ð°Ð½Ð°": 1399,
    " Ð·Ð»Ð¾": 1400,
    " Ð·Ð»Ð¾Ñ": 1401,
    " Ð·Ð»Ð¾ÑÐ¿": 1402,
    " Ð·Ð»Ð¾ÑÐ¿Ð¾Ñ": 1403,
    " Ð·Ð»Ð¾ÑÐ¿Ð¾ÑÑÐµ": 1404,
    " Ð·Ð»Ð¾ÑÐ¿Ð¾ÑÑÐµÐ±": 1405,
    " Ð·Ð»Ð¾ÑÐ¿Ð¾ÑÑÐµÐ±Ð»ÐµÐ½Ð¸Ñ": 1406,
    " Ð´Ð¾Ð²": 1407,
    " Ð´Ð¾Ð²ÐµÑÐ¸": 1408,
    " Ð´Ð¾Ð²ÐµÑÐ¸ÐµÐ¼": 1409,
    "ÐÐ¾Ð³Ð¾Ð²Ð¾Ñ": 1410,
    " Ð°ÑÐµÐ½": 1411,
    " Ð°ÑÐµÐ½Ð´": 1412,
    " Ð°ÑÐµÐ½Ð´Ñ": 1413,
    " Ð½ÐµÐ´": 1414,
    " Ð½ÐµÐ´Ð²Ð¸Ð¶": 1415,
    " Ð½ÐµÐ´Ð²Ð¸Ð¶Ð¸Ð¼": 1416,
    " Ð½ÐµÐ´Ð²Ð¸Ð¶Ð¸Ð¼Ð¾Ð³Ð¾": 1417,
    " Ð·Ð°ÐºÐ»ÑÑÑÐ½Ð½ÑÐ¹": 1418,
    " ÑÑÐ¾Ðº": 1419,
    " Ð³Ð¾Ð´Ð°": 1420,
    " Ð¿Ð¾Ð´Ð»Ðµ": 1421,
    " Ð¿Ð¾Ð´Ð»ÐµÐ¶": 1422,
    " Ð¿Ð¾Ð´Ð»ÐµÐ¶Ð¸Ñ": 1423,
    " Ð³Ð¾ÑÑÐ´Ð°ÑÑÑÐ²ÐµÐ½": 1424,
    " Ð³Ð¾ÑÑÐ´Ð°ÑÑÑÐ²ÐµÐ½Ð½Ð¾Ð¹": 1425,
    " ÑÑ": 1426,
    " ÑÑÐ¸Ñ": 1427,
    " ÑÑÐ¸ÑÐ°ÐµÑÑÑ": 1428,
    " Ð·Ð°ÐºÐ»ÑÑÑÐ½Ð½ÑÐ¼": 1429,
    " Ð¼Ð¾Ð¼ÐµÐ½": 1430,
    " Ð¼Ð¾Ð¼ÐµÐ½ÑÐ°": 1431,
    " ÑÐ°Ðº": 1432,
    " ÑÐ°ÐºÐ¾Ð¹": 1433,
    "ÐÑ": 1434,
    "ÐÑÑÐµÑÐ¸Ð°Ð»Ñ": 1435,
    "ÐÑÑÐµÑÐ¸Ð°Ð»ÑÐ½Ð°Ñ": 1436,
    " Ð³Ð¸": 1437,
    " Ð³Ð¸Ð¿": 1438,
    " Ð³Ð¸Ð¿ÐµÑ": 1439,
    " Ð³Ð¸Ð¿ÐµÑÑ": 1440,
    " Ð³Ð¸Ð¿ÐµÑÑÐµÐ½": 1441,
    " Ð³Ð¸Ð¿ÐµÑÑÐµÐ½Ð·Ð¸": 1442,
    " Ð³Ð¸Ð¿ÐµÑÑÐµÐ½Ð·Ð¸Ñ": 1443,
    " ÑÐ²": 1444,
    " ÑÐ²Ð»ÑÐµÑÑÑ": 1445,
    " ÑÐ°ÐºÑÐ¾ÑÐ¾Ð¼": 1446,
    " ÑÐ¸": 1447,
    " ÑÐ¸ÑÐº": 1448,
    " ÑÐ¸ÑÐºÐ°": 1449,
    " ÑÐµÑÐ´Ðµ": 1450,
    " ÑÐµÑÐ´ÐµÑÐ½Ð¾": 1451,
    "-ÑÐ¾ÑÑÐ´": 1452,
    "-ÑÐ¾ÑÑÐ´Ð¸ÑÑ": 1453,
    "-ÑÐ¾ÑÑÐ´Ð¸ÑÑÑÑ": 1454,
    " Ð·Ð°Ð±Ð¾Ð»ÐµÐ²Ð°Ð½Ð¸": 1455,
    " Ð·Ð°Ð±Ð¾Ð»ÐµÐ²Ð°Ð½Ð¸Ð¹": 1456,
    " Ð ÐµÐº": 1457,
    " Ð ÐµÐºÐ¾Ð¼ÐµÐ½": 1458,
    " Ð ÐµÐºÐ¾Ð¼ÐµÐ½Ð´Ñ": 1459,
    " Ð ÐµÐºÐ¾Ð¼ÐµÐ½Ð´ÑÐµÑÑÑ": 1460,
    " ÑÐµÐ³ÑÐ»ÑÑ": 1461,
    " ÑÐµÐ³ÑÐ»ÑÑÐ½ÑÐ¹": 1462,
    " ÐºÐ¾Ð½Ñ": 1463,
    " ÐºÐ¾Ð½ÑÑ": 1464,
    " ÐºÐ¾Ð½ÑÑÐ¾Ð»Ñ": 1465,
    " Ð°ÑÑÐµÑÐ¸Ð°Ð»Ñ": 1466,
    " Ð°ÑÑÐµÑÐ¸Ð°Ð»ÑÐ½Ð¾Ð³Ð¾": 1467,
    " Ð´Ð°Ð²": 1468,
    " Ð´Ð°Ð²Ð»ÐµÐ½Ð¸Ñ": 1469,
    " ÑÐ¾Ð±Ð»Ñ": 1470,
    " ÑÐ¾Ð±Ð»ÑÐ´ÐµÐ½Ð¸Ðµ": 1471,
    " Ð½Ð°Ð·Ð½Ð°": 1472,
    " Ð½Ð°Ð·Ð½Ð°Ñ": 1473,
    " Ð½Ð°Ð·Ð½Ð°ÑÐµÐ½": 1474,
    " Ð½Ð°Ð·Ð½Ð°ÑÐµÐ½Ð½Ð¾Ð¹": 1475,
    " ÑÐµÑÐ°": 1476,
    " ÑÐµÑÐ°Ð¿": 1477,
    " ÑÐµÑÐ°Ð¿Ð¸": 1478,
    " ÑÐµÑÐ°Ð¿Ð¸Ð¸": 1479,
    " Ð´Ð¸Ð°Ð³": 1480,
    " Ð´Ð¸Ð°Ð³Ð½Ð¾ÑÑÐ¸": 1481,
    " Ð´Ð¸Ð°Ð³Ð½Ð¾ÑÑÐ¸ÐºÐµ": 1482,
    " Ð·Ð°Ð±Ð¾Ð»ÐµÐ²Ð°Ð½Ð¸Ñ": 1483,
    " Ð¸ÑÐ¿Ð¾Ð»ÑÐ·ÑÑÑÑÑ": 1484,
    " Ð»Ð°": 1485,
    " Ð»Ð°Ð±": 1486,
    " Ð»Ð°Ð±Ð¾ÑÐ°": 1487,
    " Ð»Ð°Ð±Ð¾ÑÐ°ÑÐ¾Ñ": 1488,
    " Ð»Ð°Ð±Ð¾ÑÐ°ÑÐ¾ÑÐ½ÑÐµ": 1489,
    " Ð¸ÑÑ": 1490,
    " Ð¸ÑÑÐ»Ðµ": 1491,
    " Ð¸ÑÑÐ»ÐµÐ´": 1492,
    " Ð¸ÑÑÐ»ÐµÐ´Ð¾Ð²": 1493,
    " Ð¸ÑÑÐ»ÐµÐ´Ð¾Ð²Ð°Ð½Ð¸Ñ": 1494,
    " Ð¾Ð±ÑÐ¸Ð¹": 1495,
    " ÐºÑÐ¾Ð²": 1496,
    " ÐºÑÐ¾Ð²Ð¸": 1497,
    " Ð±Ð¸Ð¾": 1498,
    " Ð±Ð¸Ð¾Ñ": 1499,
    " Ð±Ð¸Ð¾ÑÐ¸Ð¼": 1500,
    " Ð±Ð¸Ð¾ÑÐ¸Ð¼Ð¸ÑÐµÑÐºÐ¸Ð¹": 1501,
    " Ð¸Ð¼Ð¼": 1502,
    " Ð¸Ð¼Ð¼ÑÐ½": 1503,
    " Ð¸Ð¼Ð¼ÑÐ½Ð¾Ð»Ð¾Ð³Ð¸ÑÐµÑÐº": 1504,
    " Ð¸Ð¼Ð¼ÑÐ½Ð¾Ð»Ð¾Ð³Ð¸ÑÐµÑÐºÐ¸Ðµ": 1505,
    " ÑÐµÑÑÑ": 1506,
    "Ð ": 1507,
    "Ð Ð¾ÑÑÐ¸Ð¹ÑÐº": 1508,
    "Ð Ð¾ÑÑÐ¸Ð¹ÑÐºÐ°Ñ": 1509,
    " Ð¤ÐµÐ´ÐµÑÐ°": 1510,
    " Ð¤ÐµÐ´ÐµÑÐ°ÑÐ¸": 1511,
    " Ð¤ÐµÐ´ÐµÑÐ°ÑÐ¸Ñ": 1512,
    " Ð³Ð¾ÑÑÐ´Ð°ÑÑÑÐ²Ð¾": 1513,
    " Ð": 1514,
    " ÐÐ¾ÑÑ": 1515,
    " ÐÐ¾ÑÑÐ¾Ñ": 1516,
    " ÐÐ¾ÑÑÐ¾ÑÐ½Ð¾Ð¹": 1517,
    " ÐÐ²": 1518,
    " ÐÐ²Ñ": 1519,
    " ÐÐ²ÑÐ¾Ð¿": 1520,
    " ÐÐ²ÑÐ¾Ð¿Ðµ": 1521,
    " Ð¡Ðµ": 1522,
    " Ð¡ÐµÐ²ÐµÑ": 1523,
    " Ð¡ÐµÐ²ÐµÑÐ½Ð¾Ð¹": 1524,
    " Ð": 1525,
    " ÐÐ·Ð¸": 1526,
    " ÐÐ·Ð¸Ð¸": 1527,
    " Ð¡Ñ": 1528,
    " Ð¡ÑÐ¾Ð»Ð¸": 1529,
    " Ð¡ÑÐ¾Ð»Ð¸Ñ": 1530,
    " Ð¡ÑÐ¾Ð»Ð¸ÑÐ°": 1531,
    " ÐÐ¾ÑÐºÐ²Ð°": 1532,
    " ÐÑÑ": 1533,
    " ÐÑÑÐ¿": 1534,
    " ÐÑÑÐ¿Ð½": 1535,
    " ÐÑÑÐ¿Ð½ÐµÐ¹": 1536,
    " ÐÑÑÐ¿Ð½ÐµÐ¹Ñ": 1537,
    " ÐÑÑÐ¿Ð½ÐµÐ¹ÑÐ¸Ðµ": 1538,
    " Ð³Ð¾ÑÐ¾Ð´Ð°": 1539,
    " Ð¡Ð°Ð½": 1540,
    " Ð¡Ð°Ð½ÐºÑ": 1541,
    "-ÐÐµÑÐµÑÐ±ÑÑÐ³": 1542,
    " ÐÐ¾Ð²Ð¾ÑÐ¸": 1543,
    " ÐÐ¾Ð²Ð¾ÑÐ¸Ð±": 1544,
    " ÐÐ¾Ð²Ð¾ÑÐ¸Ð±Ð¸": 1545,
    " ÐÐ¾Ð²Ð¾ÑÐ¸Ð±Ð¸Ñ": 1546,
    " ÐÐ¾Ð²Ð¾ÑÐ¸Ð±Ð¸ÑÑÐº": 1547,
    " ÐÐº": 1548,
    " ÐÐºÐ°Ñ": 1549,
    " ÐÐºÐ°ÑÐµÑ": 1550,
    " ÐÐºÐ°ÑÐµÑÐ¸Ð½": 1551,
    " ÐÐºÐ°ÑÐµÑÐ¸Ð½Ð±ÑÑÐ³": 1552,
    " ÐÐ°Ð·": 1553,
    " ÐÐ°Ð·Ð°Ð½": 1554,
    " ÐÐ°Ð·Ð°Ð½Ñ": 1555,
    " ÐÐ¸": 1556,
    " ÐÐ¸Ð¶": 1557,
    " ÐÐ¸Ð¶Ð½": 1558,
    " ÐÐ¸Ð¶Ð½Ð¸Ð¹": 1559,
    " ÐÐ¾Ð²Ð³Ð¾Ñ": 1560,
    " ÐÐ¾Ð²Ð³Ð¾ÑÐ¾Ð´": 1561,
    "ÐÐµÑÐµÑÐ±ÑÑÐ³ÑÐº": 1562,
    "ÐÐµÑÐµÑÐ±ÑÑÐ³ÑÐºÐ¾Ðµ": 1563,
    " Ð»ÐµÑÐ¾": 1564,
    " Ð±ÑÐ»Ð¾": 1565,
    " ÑÐ°Ð·Ð³Ð°": 1566,
    " ÑÐ°Ð·Ð³Ð°ÑÐµ": 1567,
    " Ð": 1568,
    " ÐÐµ": 1569,
    " ÐÐµÐ»Ñ": 1570,
    " ÐÐµÐ»ÑÐµ": 1571,
    " Ð½Ð¾Ñ": 1572,
    " Ð½Ð¾ÑÐ¸": 1573,
    " Ð¾ÐºÑ": 1574,
    " Ð¾ÐºÑÑ": 1575,
    " Ð¾ÐºÑÑÑÐ²Ð°": 1576,
    " Ð¾ÐºÑÑÑÐ²Ð°Ð»Ð¸": 1577,
    " Ð³Ð¾ÑÐ¾Ð´": 1578,
    " ÑÐ²Ð¾Ð¸Ð¼": 1579,
    " Ð¿ÑÐ¸Ð·": 1580,
    " Ð¿ÑÐ¸Ð·ÑÐ°": 1581,
    " Ð¿ÑÐ¸Ð·ÑÐ°Ñ": 1582,
    " Ð¿ÑÐ¸Ð·ÑÐ°ÑÐ½ÑÐ¼": 1583,
    " ÑÐ²ÐµÑ": 1584,
    " ÑÐ²ÐµÑÐ¾Ð¼": 1585,
    " Ð Ð°": 1586,
    " Ð Ð°Ð·Ð²Ð¾Ð´Ð½ÑÐµ": 1587,
    " Ð¼Ð¾ÑÑÑ": 1588,
    " Ð¿Ð¾Ð´Ð½Ð¸Ð¼": 1589,
    " Ð¿Ð¾Ð´Ð½Ð¸Ð¼Ð°": 1590,
    " Ð¿Ð¾Ð´Ð½Ð¸Ð¼Ð°Ð»Ð¸ÑÑ": 1591,
    " Ð¿ÑÐ¾Ð¿": 1592,
    " Ð¿ÑÐ¾Ð¿Ñ": 1593,
    " Ð¿ÑÐ¾Ð¿ÑÑÐº": 1594,
    " Ð¿ÑÐ¾Ð¿ÑÑÐºÐ°Ñ": 1595,
    " ÐºÐ¾": 1596,
    " ÐºÐ¾ÑÐ°Ð±": 1597,
    " ÐºÐ¾ÑÐ°Ð±Ð»Ð¸": 1598,
    " ÐÐµ": 1599,
    " ÐÐµÐ²Ðµ": 1600,
    "ÐÑ": 1601,
    "ÐÑÐ¾Ð³": 1602,
    "ÐÑÐ¾Ð³ÑÐ°": 1603,
    "ÐÑÐ¾Ð³ÑÐ°Ð¼": 1604,
    "ÐÑÐ¾Ð³ÑÐ°Ð¼Ð¼Ð¸": 1605,
    "ÐÑÐ¾Ð³ÑÐ°Ð¼Ð¼Ð¸ÑÐ¾Ð²": 1606,
    "ÐÑÐ¾Ð³ÑÐ°Ð¼Ð¼Ð¸ÑÐ¾Ð²Ð°Ð½Ð¸Ðµ": 1607,
    " Py": 1608,
    " Pyt": 1609,
    " Pyth": 1610,
    " Python": 1611,
    " ÑÑÐ°Ð½Ð¾Ð²": 1612,
    " ÑÑÐ°Ð½Ð¾Ð²Ð¸Ñ": 1613,
    " ÑÑÐ°Ð½Ð¾Ð²Ð¸ÑÑÑ": 1614,
    " Ð¿Ð¾Ð¿": 1615,
    " Ð¿Ð¾Ð¿ÑÐ»ÑÑ": 1616,
    " Ð¿Ð¾Ð¿ÑÐ»ÑÑÐ½ÑÐ¼": 1617,
    " Ð¯": 1618,
    " Ð¯Ð·Ñ": 1619,
    " Ð¯Ð·ÑÐº": 1620,
    " Ð¾ÑÐ»Ð¸": 1621,
    " Ð¾ÑÐ»Ð¸ÑÐ°": 1622,
    " Ð¾ÑÐ»Ð¸ÑÐ°ÐµÑÑÑ": 1623,
    " Ð¿ÑÐ¾ÑÑ": 1624,
    " Ð¿ÑÐ¾ÑÑÑ": 1625,
    " Ð¿ÑÐ¾ÑÑÑÐ¼": 1626,
    " ÑÐ¸Ð½": 1627,
    " ÑÐ¸Ð½Ñ": 1628,
    " ÑÐ¸Ð½ÑÐ°Ðº": 1629,
    " ÑÐ¸Ð½ÑÐ°ÐºÑ": 1630,
    " ÑÐ¸Ð½ÑÐ°ÐºÑÐ¸Ñ": 1631,
    " ÑÐ¸Ð½ÑÐ°ÐºÑÐ¸ÑÐ¾Ð¼": 1632,
    " Ð±Ð¾Ð»Ñ": 1633,
    " Ð±Ð¾Ð»ÑÑÐ¸Ð¼": 1634,
    " ÐºÐ¾Ð»Ð¸": 1635,
    " ÐºÐ¾Ð»Ð¸ÑÐµ": 1636,
    " ÐºÐ¾Ð»Ð¸ÑÐµÑÑÐ²": 1637,
    " ÐºÐ¾Ð»Ð¸ÑÐµÑÑÐ²Ð¾Ð¼": 1638,
    " Ð±Ð¸Ð±Ð»Ð¸Ð¾ÑÐµÐº": 1639,
    " Ð°Ð½Ð°Ð»Ð¸Ð·Ð°": 1640,
    " Ð¼Ð°ÑÐ¸Ð½": 1641,
    " Ð¼Ð°ÑÐ¸Ð½Ð½Ð¾Ð³Ð¾": 1642,
    " Ð²ÐµÐ±": 1643,
    "-ÑÐ°": 1644,
    "-ÑÐ°Ð·": 1645,
    "-ÑÐ°Ð·ÑÐ°Ð±Ð¾Ñ": 1646,
    "-ÑÐ°Ð·ÑÐ°Ð±Ð¾ÑÐºÐ¸": 1647,
    "Ð¡Ð¾Ð²ÑÐµÐ¼ÐµÐ½": 1648,
    "Ð¡Ð¾Ð²ÑÐµÐ¼ÐµÐ½Ð½ÑÐµ": 1649,
    " Ð¾Ð±ÑÐ°Ð±Ð¾ÑÐºÐ¸": 1650,
    " Ð¿Ð¾Ð·": 1651,
    " Ð¿Ð¾Ð·Ð²Ð¾Ð»": 1652,
    " Ð¿Ð¾Ð·Ð²Ð¾Ð»Ñ": 1653,
    " Ð¿Ð¾Ð·Ð²Ð¾Ð»ÑÑÑ": 1654,
    " Ð°Ð½Ð°Ð»Ð¸Ð·Ð¸": 1655,
    " Ð°Ð½Ð°Ð»Ð¸Ð·Ð¸ÑÐ¾Ð²Ð°ÑÑ": 1656,
    " ÑÐµÐº": 1657,
    " ÑÐµÐºÑÑÑ": 1658,
    " ÑÐ·ÑÐºÐ°Ñ": 1659,
    " Ð¸Ð·Ð²Ð»ÐµÐº": 1660,
    " Ð¸Ð·Ð²Ð»ÐµÐºÐ°ÑÑ": 1661,
    " Ð¸Ð½ÑÐ¾ÑÐ¼Ð°": 1662,
    " Ð¸Ð½ÑÐ¾ÑÐ¼Ð°ÑÐ¸": 1663,
    " Ð¸Ð½ÑÐ¾ÑÐ¼Ð°ÑÐ¸Ñ": 1664,
    " ÐºÐ»Ð°": 1665,
    " ÐºÐ»Ð°ÑÑÐ¸": 1666,
    " ÐºÐ»Ð°ÑÑÐ¸Ñ": 1667,
    " ÐºÐ»Ð°ÑÑÐ¸ÑÐ¸": 1668,
    " ÐºÐ»Ð°ÑÑÐ¸ÑÐ¸ÑÐ¸": 1669,
    " ÐºÐ»Ð°ÑÑÐ¸ÑÐ¸ÑÐ¸ÑÐ¾Ð²Ð°ÑÑ": 1670,
    " Ð´Ð¾Ðº": 1671,
    " Ð´Ð¾ÐºÑ": 1672,
    " Ð´Ð¾ÐºÑÐ¼ÐµÐ½": 1673,
    " Ð´Ð¾ÐºÑÐ¼ÐµÐ½Ñ": 1674,
    " Ð´Ð¾ÐºÑÐ¼ÐµÐ½ÑÑ": 1675,
    " Ð³ÐµÐ½": 1676,
    " Ð³ÐµÐ½ÐµÑÐ¸": 1677,
    " Ð³ÐµÐ½ÐµÑÐ¸ÑÐ¾Ð²Ð°ÑÑ": 1678,
    " Ð¾ÑÐ²ÐµÑ": 1679,
    " Ð¾ÑÐ²ÐµÑÑ": 1680,
    "ÐÐ°ÑÐµ": 1681,
    "ÐÐ°ÑÐµÐ¼Ð°Ñ": 1682,
    "ÐÐ°ÑÐµÐ¼Ð°ÑÐ¸ÑÐµÑÐºÐ¸Ð¹": 1683,
    " Ð¸Ð·ÑÑÐ°ÐµÑ": 1684,
    " ÑÑÐ½ÐºÑÐ¸Ð¸": 1685,
    " Ð¿ÑÐµÐ´Ðµ": 1686,
    " Ð¿ÑÐµÐ´ÐµÐ»Ñ": 1687,
    " Ð¿ÑÐ¾Ð¸Ð·Ð²Ð¾Ð´Ð½ÑÐµ": 1688,
    " Ð¸Ð½ÑÐµÐ³": 1689,
    " Ð¸Ð½ÑÐµÐ³ÑÐ°": 1690,
    " Ð¸Ð½ÑÐµÐ³ÑÐ°Ð»Ñ": 1691,
    " ÐÐ¸": 1692,
    " ÐÐ¸Ñ": 1693,
    " ÐÐ¸ÑÑÐµÑÐµÐ½": 1694,
    " ÐÐ¸ÑÑÐµÑÐµÐ½ÑÐ¸": 1695,
    " ÐÐ¸ÑÑÐµÑÐµÐ½ÑÐ¸Ð°Ð»Ñ": 1696,
    " ÐÐ¸ÑÑÐµÑÐµÐ½ÑÐ¸Ð°Ð»ÑÐ½Ð¾Ðµ": 1697,
    " Ð¸ÑÑÐ¸Ñ": 1698,
    " Ð¸ÑÑÐ¸ÑÐ»": 1699,
    " Ð¸ÑÑÐ¸ÑÐ»ÐµÐ½Ð¸Ðµ": 1700,
    " Ð·Ð°Ð½Ð¸Ð¼": 1701,
    " Ð·Ð°Ð½Ð¸Ð¼Ð°ÐµÑÑÑ": 1702,
    " Ð¸Ð·ÑÑ": 1703,
    " Ð¸Ð·ÑÑÐµÐ½Ð¸Ðµ": 1704,
    " Ð¸Ð·ÑÑÐµÐ½Ð¸ÐµÐ¼": 1705,
    " ÑÐº": 1706,
    " ÑÐºÐ¾Ñ": 1707,
    " ÑÐºÐ¾ÑÐ¾ÑÑÐ¸": 1708,
    " Ð¸Ð·Ð¼ÐµÐ½": 1709,
    " Ð¸Ð·Ð¼ÐµÐ½ÐµÐ½Ð¸Ñ": 1710,
    " Ð²ÐµÐ»Ð¸Ñ": 1711,
    " Ð²ÐµÐ»Ð¸ÑÐ¸Ð½": 1712,
    "Ð": 1713,
    "ÐÑÐºÑÑÑÑÐ²ÐµÐ½": 1714,
    "ÐÑÐºÑÑÑÑÐ²ÐµÐ½Ð½ÑÐ¹": 1715,
    " Ð¸Ð½ÑÐµÐ»Ð»ÐµÐºÑ": 1716,
    " Ð½Ð°ÑÐ¾Ð´": 1717,
    " Ð½Ð°ÑÐ¾Ð´Ð¸Ñ": 1718,
    " Ð¿ÑÐ¸Ð¼": 1719,
    " Ð¿ÑÐ¸Ð¼ÐµÐ½": 1720,
    " Ð¿ÑÐ¸Ð¼ÐµÐ½ÐµÐ½Ð¸Ðµ": 1721,
    " Ð¾Ð±Ð»Ð°ÑÑÑ": 1722,
    " Ð¾Ð±Ð»Ð°ÑÑÑÑ": 1723,
    " ÑÐ°ÑÐ¿": 1724,
    " ÑÐ°ÑÐ¿Ð¾Ð·": 1725,
    " ÑÐ°ÑÐ¿Ð¾Ð·Ð½Ð°": 1726,
    " ÑÐ°ÑÐ¿Ð¾Ð·Ð½Ð°Ð²": 1727,
    " ÑÐ°ÑÐ¿Ð¾Ð·Ð½Ð°Ð²Ð°Ð½Ð¸Ñ": 1728,
    " Ð¸Ð·Ð¾Ð±": 1729,
    " Ð¸Ð·Ð¾Ð±ÑÐ°": 1730,
    " Ð¸Ð·Ð¾Ð±ÑÐ°Ð¶": 1731,
    " Ð¸Ð·Ð¾Ð±ÑÐ°Ð¶ÐµÐ½Ð¸": 1732,
    " Ð¸Ð·Ð¾Ð±ÑÐ°Ð¶ÐµÐ½Ð¸Ð¹": 1733,
    " Ð´Ð¾": 1734,
    " Ð°Ð²Ñ": 1735,
    " Ð°Ð²ÑÐ¾Ð½Ð¾Ð¼": 1736,
    " Ð°Ð²ÑÐ¾Ð½Ð¾Ð¼Ð½Ð¾Ð³Ð¾": 1737,
    " Ð²Ð¾Ð¶": 1738,
    " Ð²Ð¾Ð¶Ð´": 1739,
    " Ð²Ð¾Ð¶Ð´ÐµÐ½Ð¸Ñ": 1740,
    " Ð°Ð²ÑÐ¾Ð¼": 1741,
    " Ð°Ð²ÑÐ¾Ð¼Ð¾Ð±": 1742,
    " Ð°Ð²ÑÐ¾Ð¼Ð¾Ð±Ð¸": 1743,
    " Ð°Ð²ÑÐ¾Ð¼Ð¾Ð±Ð¸Ð»ÐµÐ¹": 1744,
    "Ð­": 1745,
    "Ð­ÐºÐ¾Ð½Ð¾Ð¼": 1746,
    "Ð­ÐºÐ¾Ð½Ð¾Ð¼Ð¸ÑÐµÑÐºÐ¸Ð¹": 1747,
    " ÑÑÑÐ°": 1748,
    " ÑÑÑÐ°Ð½Ñ": 1749,
    " Ð·Ð°Ð²Ð¸": 1750,
    " Ð·Ð°Ð²Ð¸Ñ": 1751,
    " Ð·Ð°Ð²Ð¸ÑÐ¸Ñ": 1752,
    " Ð¼Ð½": 1753,
    " Ð¼Ð½Ð¾Ð¶": 1754,
    " Ð¼Ð½Ð¾Ð¶ÐµÑÑÐ²": 1755,
    " Ð¼Ð½Ð¾Ð¶ÐµÑÑÐ²Ð°": 1756,
    " ÑÐ°ÐºÑÐ¾ÑÐ¾Ð²": 1757,
    " Ð¸Ð½Ð²Ðµ": 1758,
    " Ð¸Ð½Ð²ÐµÑÑÐ¸": 1759,
    " Ð¸Ð½Ð²ÐµÑÑÐ¸ÑÐ¸": 1760,
    " Ð¸Ð½Ð²ÐµÑÑÐ¸ÑÐ¸Ð¹": 1761,
    " Ð¿ÑÐ¾Ð¸Ð·Ð²Ð¾Ð´": 1762,
    " Ð¿ÑÐ¾Ð¸Ð·Ð²Ð¾Ð´Ð¸": 1763,
    " Ð¿ÑÐ¾Ð¸Ð·Ð²Ð¾Ð´Ð¸ÑÐµÐ»Ñ": 1764,
    " Ð¿ÑÐ¾Ð¸Ð·Ð²Ð¾Ð´Ð¸ÑÐµÐ»ÑÐ½Ð¾ÑÑÐ¸": 1765,
    " ÑÑÑ": 1766,
    " ÑÑÑÐ´Ð°": 1767,
    " ÑÐµÑÐ½": 1768,
    " ÑÐµÑÐ½Ð¾Ð»Ð¾Ð³Ð¸ÑÐµÑÐº": 1769,
    " ÑÐµÑÐ½Ð¾Ð»Ð¾Ð³Ð¸ÑÐµÑÐºÐ¾Ð³Ð¾": 1770,
    " ÐºÐ°ÑÐµ": 1771,
    " ÐºÐ°ÑÐµÑÑÐ²Ð°": 1772,
    " ÑÐµÐ»Ð¾Ð²Ðµ": 1773,
    " ÑÐµÐ»Ð¾Ð²ÐµÑÐµÑÐº": 1774,
    " ÑÐµÐ»Ð¾Ð²ÐµÑÐµÑÐºÐ¾Ð³Ð¾": 1775,
    " ÐºÐ°Ð¿Ð¸Ñ": 1776,
    " ÐºÐ°Ð¿Ð¸ÑÐ°Ð»": 1777,
    " ÐºÐ°Ð¿Ð¸ÑÐ°Ð»Ð°": 1778,
    "Ð": 1779,
    "ÐÐ¸": 1780,
    "ÐÐ¸ÑÐµ": 1781,
    "ÐÐ¸ÑÐµÑÐ°": 1782,
    "ÐÐ¸ÑÐµÑÐ°Ñ": 1783,
    "ÐÐ¸ÑÐµÑÐ°ÑÑÑ": 1784,
    "ÐÐ¸ÑÐµÑÐ°ÑÑÑÐ½ÑÐ¹": 1785,
    " ÑÐ·ÑÐº": 1786,
    " Ð¾Ð±ÑÐ°Ð±Ð¾ÑÐ°Ð½": 1787,
    " Ð¾Ð±ÑÐ°Ð±Ð¾ÑÐ°Ð½Ð½Ð°Ñ": 1788,
    " ÑÐ¾ÑÐ¼Ð°": 1789,
    " Ð¾Ð±ÑÐµÐ½": 1790,
    " Ð¾Ð±ÑÐµÐ½Ð°Ñ": 1791,
    " Ð¾Ð±ÑÐµÐ½Ð°ÑÐ¾Ð´": 1792,
    " Ð¾Ð±ÑÐµÐ½Ð°ÑÐ¾Ð´Ð½Ð¾Ð³Ð¾": 1793,
    " Ð¾Ð±Ð»Ð°Ð´Ð°": 1794,
    " Ð¾Ð±Ð»Ð°Ð´Ð°ÑÑÐ°Ñ": 1795,
    " Ð¿Ð¸Ñ": 1796,
    " Ð¿Ð¸ÑÑ": 1797,
    " Ð¿Ð¸ÑÑÐ¼ÐµÐ½": 1798,
    " Ð¿Ð¸ÑÑÐ¼ÐµÐ½Ð½Ð¾": 1799,
    " Ð·Ð°ÐºÑÐµ": 1800,
    " Ð·Ð°ÐºÑÐµÐ¿": 1801,
    " Ð·Ð°ÐºÑÐµÐ¿Ð»ÑÐ½": 1802,
    " Ð·Ð°ÐºÑÐµÐ¿Ð»ÑÐ½Ð½ÑÐ¼Ð¸": 1803,
    " Ð½Ð¾ÑÐ¼Ð°": 1804,
    " Ð½Ð¾ÑÐ¼Ð°Ð¼Ð¸": 1805,
    " Ñ": 1806,
    " ÑÐ¸": 1807,
    " ÑÐ¸ÑÐ¾Ðº": 1808,
    " ÑÐ¸ÑÐ¾ÐºÐ¸Ð¼": 1809,
    " Ð´Ð¸Ð°Ð¿": 1810,
    " Ð´Ð¸Ð°Ð¿Ð°Ð·": 1811,
    " Ð´Ð¸Ð°Ð¿Ð°Ð·Ð¾Ð½Ð¾Ð¼": 1812,
    " ÑÑÐ½ÐºÑÐ¸Ð¾Ð½": 1813,
    " ÑÑÐ½ÐºÑÐ¸Ð¾Ð½Ð°Ð»Ñ": 1814,
    " ÑÑÐ½ÐºÑÐ¸Ð¾Ð½Ð°Ð»ÑÐ½ÑÑ": 1815,
    " ÑÑÐ¸": 1816,
    " ÑÑÐ¸Ð»ÐµÐ¹": 1817,
    "ÐÑÑ": 1818,
    "ÐÑÑÑ": 1819,
    "ÐÑÑÑÐ¾Ð½Ð¾Ð¼": 1820,
    "ÐÑÑÑÐ¾Ð½Ð¾Ð¼Ð¸Ñ": 1821,
    " Ð½Ð°Ñ": 1822,
    " Ð½Ð°ÑÐºÐ°": 1823,
    " ÐÑÐµ": 1824,
    " ÐÑÐµÐ»ÐµÐ½": 1825,
    " ÐÑÐµÐ»ÐµÐ½Ð½Ð¾Ð¹": 1826,
    " Ð¸Ð·ÑÑÐ°ÑÑÐ°Ñ": 1827,
    " ÑÐ°ÑÐ¿Ð¾Ð»": 1828,
    " ÑÐ°ÑÐ¿Ð¾Ð»Ð¾Ð¶ÐµÐ½Ð¸Ðµ": 1829,
    " Ð´Ð²Ð¸Ð¶": 1830,
    " Ð´Ð²Ð¸Ð¶ÐµÐ½Ð¸Ðµ": 1831,
    " ÑÑÑÑÐºÑ": 1832,
    " ÑÑÑÑÐºÑÑ": 1833,
    " ÑÑÑÑÐºÑÑÑÑ": 1834,
    " Ð¿ÑÐ¾Ð¸Ñ": 1835,
    " Ð¿ÑÐ¾Ð¸ÑÑÐ¾Ð¶": 1836,
    " Ð¿ÑÐ¾Ð¸ÑÑÐ¾Ð¶Ð´ÐµÐ½Ð¸Ðµ": 1837,
    " Ð½ÐµÐ±Ðµ": 1838,
    " Ð½ÐµÐ±ÐµÑ": 1839,
    " Ð½ÐµÐ±ÐµÑÐ½ÑÑ": 1840,
    " ÑÐµÐ»": 1841
  },
  "merges": [
    [
      " ",
      "Ð"
    ],
    [
      "Ð",
      "¾"
    ],
    [
      "Ð",
      "µ"
    ],
    [
      "Ð",
      "¸"
    ],
    [
      "Ð",
      "°"
    ],
    [
      "Ð",
      "½"
    ],
    [
      "Ñ",
      ""
    ],
    [
      "Ñ",
      ""
    ],
    [
      "Ð¾",
      "Ð"
    ],
    [
      "Ñ",
      ""
    ],
    [
      "Ð",
      "»"
    ],
    [
      "Ñ",
      ""
    ],
    [
      "Ð",
      "º"
    ],
    [
      "Ñ",
      ""
    ],
    [
      "Ð",
      "²"
    ],
    [
      "Ñ",
      ""
    ],
    [
      "Ñ",
      "Ñ"
    ],
    [
      "Ð",
      "¼"
    ],
    [
      "Ð",
      "·"
    ],
    [
      "Ðµ",
      "Ð½"
    ],
    [
      "Ñ",
      ""
    ],
    [
      " ",
      " "
    ],
    [
      " Ð",
      "¸"
    ],
    [
      "Ñ",
      ""
    ],
    [
      "Ð",
      "´"
    ],
    [
      " Ð",
      "¿"
    ],
    [
      "Ð",
      "±"
    ],
    [
      "Ñ",
      "Ð°"
    ],
    [
      "Ðµ",
      "Ñ"
    ],
    [
      " Ð",
      "½"
    ],
    [
      " Ð",
      "²"
    ],
    [
      "Ð»",
      "Ð¸"
    ],
    [
      "Ñ",
      ""
    ],
    [
      " Ð",
      "¾"
    ],
    [
      "Ð¾Ð",
      "²"
    ],
    [
      " ",
      "Ñ"
    ],
    [
      "Ð",
      "¹"
    ],
    [
      "Ðµ",
      "Ñ"
    ],
    [
      "Ð¾Ð",
      "´"
    ],
    [
      "Ð½",
      "Ñ"
    ],
    [
      "Ð¾Ð",
      "³"
    ],
    [
      " Ð",
      "¼"
    ],
    [
      "Ð°",
      "Ð½"
    ],
    [
      "  ",
      " "
    ],
    [
      " Ð",
      "´"
    ],
    [
      "Ð¾Ð",
      "»"
    ],
    [
      "Ð",
      "¿"
    ],
    [
      "Ð¾Ð",
      "¼"
    ],
    [
      "Ñ",
      ""
    ],
    [
      "ÐµÐ½",
      "Ð¸"
    ],
    [
      "Ñ",
      ""
    ],
    [
      "Ð",
      "³"
    ],
    [
      " Ð",
      "º"
    ],
    [
      " Ð½",
      "Ð°"
    ],
    [
      "Ð",
      "¶"
    ],
    [
      "Ñ",
      "Ðº"
    ],
    [
      "Ð¾Ð³",
      "Ð¾"
    ],
    [
      "Ñ",
      "Ðµ"
    ],
    [
      " Ð",
      "±"
    ],
    [
      "Ñ",
      ""
    ],
    [
      "Ð¾",
      "Ñ"
    ],
    [
      "ÑÑ",
      "Ð²"
    ],
    [
      "Ñ",
      "Ðµ"
    ],
    [
      "Ð¾",
      "Ð½"
    ],
    [
      "Ð»",
      "Ñ"
    ],
    [
      "Ð½",
      "Ð¾"
    ],
    [
      " Ð¾",
      "Ð±"
    ],
    [
      "Ñ",
      "Ð¸"
    ],
    [
      "Ñ",
      ""
    ],
    [
      "Ð½",
      "Ð°"
    ],
    [
      "Ñ",
      "Ñ"
    ],
    [
      "Ð°",
      "Ñ"
    ],
    [
      "Ð¸",
      "Ñ"
    ],
    [
      "Ñ",
      "Ðµ"
    ],
    [
      "Ð¸",
      "Ð¼"
    ],
    [
      "Ñ",
      ""
    ],
    [
      "Ð°",
      "Ð»"
    ],
    [
      "Ð¾",
      "Ñ"
    ],
    [
      "Ð¾Ð",
      "¹"
    ],
    [
      " Ð",
      "³"
    ],
    [
      "ÐµÐ½Ð¸",
      "Ðµ"
    ],
    [
      " Ð¸",
      "Ð·"
    ],
    [
      "Ð°",
      "Ðº"
    ],
    [
      " Ð¿",
      "Ñ"
    ],
    [
      " Ð",
      "°"
    ],
    [
      "Ð¾Ð",
      "¶"
    ],
    [
      " Ð½",
      "Ðµ"
    ],
    [
      "Ñ",
      ""
    ],
    [
      "Ð°",
      "Ñ"
    ],
    [
      "Ðµ",
      "Ðº"
    ],
    [
      "Ð¾",
      "Ñ"
    ],
    [
      " Ð",
      "·"
    ],
    [
      "Ð°Ð½",
      "Ð¸"
    ],
    [
      "Ð½",
      "Ð¾Ð³Ð¾"
    ],
    [
      "ÐµÐ½Ð¸",
      "Ñ"
    ],
    [
      "Ð½Ñ",
      "Ñ"
    ],
    [
      "Ð½Ñ",
      "Ðµ"
    ],
    [
      "Ñ",
      "Ð°"
    ],
    [
      "Ð¸",
      "Ð½"
    ],
    [
      "Ðº",
      "Ð¸"
    ],
    [
      "ÑÑ",
      "Ð¸"
    ],
    [
      " ",
      "ÑÐ°"
    ],
    [
      "ÐµÑ",
      "ÑÑ"
    ],
    [
      "Ñ",
      "Ñ"
    ],
    [
      "Ð°",
      "Ñ"
    ],
    [
      ".",
      "\n"
    ],
    [
      "Ð»",
      "Ð°"
    ],
    [
      " ",
      "Ñ"
    ],
    [
      "Ð·",
      "Ð²"
    ],
    [
      "Ðµ",
      "Ð¹"
    ],
    [
      "Ð²",
      "Ð¸"
    ],
    [
      " Ð",
      ""
    ],
    [
      "ÑÐµ",
      "ÑÐº"
    ],
    [
      "Ð´",
      "Ðµ"
    ],
    [
      "Ðµ",
      "ÑÑÐ²"
    ],
    [
      "Ðµ",
      "Ð¼"
    ],
    [
      " Ð¿",
      "Ð¾"
    ],
    [
      " ",
      "Ñ"
    ],
    [
      "Ñ",
      "Ð¾"
    ],
    [
      " Ð±",
      "Ñ"
    ],
    [
      " Ð¿",
      "Ð¾Ð´"
    ],
    [
      ",",
      "\n"
    ],
    [
      " Ð¾",
      "Ñ"
    ],
    [
      " Ð¸",
      "Ñ"
    ],
    [
      "Ð¿",
      "Ð¾Ð»"
    ],
    [
      " ",
      "ÑÑ"
    ],
    [
      "Ð¸",
      "Ñ"
    ],
    [
      "Ðº",
      "Ð°"
    ],
    [
      "Ñ",
      "Ð¾Ð²"
    ],
    [
      " ",
      "Ñ"
    ],
    [
      "Ð¸",
      "Ð¹"
    ],
    [
      " Ðº",
      "Ð°"
    ],
    [
      "Ð¶",
      "Ð´"
    ],
    [
      "Ð²",
      "Ð°"
    ],
    [
      " ",
      "Ñ"
    ],
    [
      "Ð»",
      "Ñ"
    ],
    [
      "Ð¾",
      "ÑÑ"
    ],
    [
      "Ñ",
      "Ñ"
    ],
    [
      " ",
      "â"
    ],
    [
      " â",
      ""
    ],
    [
      " â",
      ""
    ],
    [
      " Ð¸",
      "Ð½"
    ],
    [
      "ÐµÑ",
      "Ð¾Ð´"
    ],
    [
      "Ñ",
      "Ñ"
    ],
    [
      "Ð¸",
      "ÑÑ"
    ],
    [
      "Ð¾Ð",
      "±"
    ],
    [
      " Ð±",
      "Ð¸"
    ],
    [
      "Ð¸",
      "ÑÐµÑÐº"
    ],
    [
      "Ð¾Ð",
      "¿"
    ],
    [
      "ÑÐ°",
      "Ð±"
    ],
    [
      "Ð·",
      "Ñ"
    ],
    [
      "Ð",
      ""
    ],
    [
      "Ð¾Ð½",
      "Ð¾Ð¼"
    ],
    [
      "Ð½",
      "Ð¾Ð¹"
    ],
    [
      "ÑÐ¸",
      "Ð¸"
    ],
    [
      "Ð°Ñ",
      "Ñ"
    ],
    [
      "Ð·",
      "Ð¸"
    ],
    [
      " Ð²",
      "Ñ"
    ],
    [
      " Ð",
      "¡"
    ],
    [
      " Ð",
      ""
    ],
    [
      "Ñ",
      "Ð¸"
    ],
    [
      "Ñ",
      "Ð´"
    ],
    [
      "Ð»Ð¸",
      "Ñ"
    ],
    [
      "Ð»Ð¸Ñ",
      "Ñ"
    ],
    [
      " ",
      "Ñ"
    ],
    [
      " Ñ",
      ""
    ],
    [
      " Ð¸Ñ",
      "Ð¿Ð¾Ð»"
    ],
    [
      " Ð¸ÑÐ¿Ð¾Ð»",
      "Ñ"
    ],
    [
      " Ð¸ÑÐ¿Ð¾Ð»Ñ",
      "Ð·"
    ],
    [
      " Ð¸ÑÐ¿Ð¾Ð»ÑÐ·",
      "Ñ"
    ],
    [
      "Ð¸",
      "Ðµ"
    ],
    [
      " Ð¼",
      "ÐµÑÐ¾Ð´"
    ],
    [
      " Ð´",
      "Ð»Ñ"
    ],
    [
      " Ð´",
      "Ð°Ð½"
    ],
    [
      " Ð´Ð°Ð½",
      "Ð½ÑÑ"
    ],
    [
      " Ð",
      ""
    ],
    [
      "Ñ",
      "Ð½"
    ],
    [
      "Ð½Ñ",
      "Ð¼"
    ],
    [
      "Ð¾Ð",
      "·"
    ],
    [
      "ÐµÑ",
      "Ð¸"
    ],
    [
      "Ð¼",
      "ÐµÐ½"
    ],
    [
      " Ð¸",
      "Ð¼"
    ],
    [
      "ÑÐ°Ð±",
      "Ð¾Ñ"
    ],
    [
      " Ñ",
      "Ð·Ñ"
    ],
    [
      "Ñ",
      "Ñ"
    ],
    [
      "Ñ",
      "Ñ"
    ],
    [
      "ÑÑ",
      "ÐµÑÑÐ²"
    ],
    [
      " ",
      "ÑÐµ"
    ],
    [
      " Ð°",
      "Ð½Ð°"
    ],
    [
      " Ð°Ð½Ð°",
      "Ð»Ð¸"
    ],
    [
      "Ð³",
      "Ð°"
    ],
    [
      "Ñ",
      "Ð¶"
    ],
    [
      " Ñ",
      "Ð²"
    ],
    [
      "Ð²",
      "ÐµÑ"
    ],
    [
      " Ð²",
      "Ðµ"
    ],
    [
      " Ð¾",
      "Ð´"
    ],
    [
      "Ðº",
      "Ðµ"
    ],
    [
      " Ð¼",
      "Ðµ"
    ],
    [
      "Ð»",
      "ÐµÐ½"
    ],
    [
      " Ð",
      ""
    ],
    [
      " Ð·",
      "Ð°Ðº"
    ],
    [
      "Ðº",
      "Ñ"
    ],
    [
      " Ð",
      "»"
    ],
    [
      " Ð¾Ð±",
      "ÑÑ"
    ],
    [
      "Ð»",
      "ÐµÐº"
    ],
    [
      "Ð¾Ð",
      "º"
    ],
    [
      "Ð¾Ñ",
      "Ð¼"
    ],
    [
      " ",
      "ÑÐµ"
    ],
    [
      " ÑÐ·Ñ",
      "ÐºÐ°"
    ],
    [
      "Ð°Ð½Ð¸",
      "Ñ"
    ],
    [
      " ÑÐ°",
      "Ð·Ð²"
    ],
    [
      " ÑÐ°Ð·Ð²",
      "Ð¸Ñ"
    ],
    [
      "Ñ",
      "Ð¾Ñ"
    ],
    [
      "Ð·",
      "Ð°"
    ],
    [
      " ",
      "n"
    ],
    [
      "Ñ",
      "Ð½"
    ],
    [
      " Ð¿Ñ",
      "Ð¾"
    ],
    [
      "Ð½Ñ",
      "Ð¹"
    ],
    [
      "Ð¾Ð»",
      "Ðµ"
    ],
    [
      "Ð°Ð»",
      "Ñ"
    ],
    [
      "",
      "Ñ"
    ],
    [
      "ÑÐ°",
      "ÑÑ"
    ],
    [
      "ÑÐ°ÑÑ",
      "Ð»Ð¸"
    ],
    [
      "Ð¸",
      "Ñ"
    ],
    [
      "Ð·",
      "Ð½Ð°"
    ],
    [
      " Ñ",
      "ÑÐ¾"
    ],
    [
      " Ð±Ñ",
      "Ð»"
    ],
    [
      "Ñ",
      "Ðµ"
    ],
    [
      "ÑÐ°",
      "Ð½"
    ],
    [
      " Ð",
      "¶"
    ],
    [
      "Ð¾",
      "Ðµ"
    ],
    [
      "ÐµÑ",
      "Ðµ"
    ],
    [
      "Ð¿",
      "ÑÐ°"
    ],
    [
      "Ð²",
      "Ðµ"
    ],
    [
      "Ñ",
      "Ð¹"
    ],
    [
      " Ñ",
      "ÐµÑ"
    ],
    [
      " Ð¾Ð±",
      "Ð»Ð°"
    ],
    [
      "ÑÑÐ²",
      "ÐµÐ½"
    ],
    [
      " Ð¸Ð½",
      "ÑÐµ"
    ],
    [
      "Ñ",
      "Ð°"
    ],
    [
      "Ð¾",
      "ÑÐ°"
    ],
    [
      " Ð¼ÐµÑÐ¾Ð´",
      "Ñ"
    ],
    [
      " Ð¾Ð±ÑÑ",
      "ÐµÐ½Ð¸Ñ"
    ],
    [
      "Ñ",
      "Ð¾Ð½"
    ],
    [
      " Ñ",
      "ÐµÑ"
    ],
    [
      "ÑÐµ",
      "Ð´"
    ],
    [
      "Ð°",
      "Ð²"
    ],
    [
      "ÑÐµ",
      "Ð»Ñ"
    ],
    [
      "Ð»",
      "ÑÐ½"
    ],
    [
      "Ð¾Ð»",
      "Ð¾Ð³"
    ],
    [
      "Ð¾Ð»Ð¾Ð³",
      "Ð¸ÑÐµÑÐº"
    ],
    [
      "Ð¼",
      "Ð¸"
    ],
    [
      "Ð´",
      "ÐµÐ½Ð¸Ðµ"
    ],
    [
      "Ñ",
      "Ð±"
    ],
    [
      "Ð½Ð¾",
      "ÑÑÐ¸"
    ],
    [
      "Ð",
      ""
    ],
    [
      "Ð»",
      "Ðµ"
    ],
    [
      " Ð¿Ñ",
      "Ð¸"
    ],
    [
      " Ð¾Ð±",
      "ÑÐ°Ð±Ð¾Ñ"
    ],
    [
      " Ð",
      "µ"
    ],
    [
      " Ðµ",
      "ÑÑ"
    ],
    [
      "ÑÑÐ²",
      "Ð¾"
    ],
    [
      "Ðº",
      "Ð¾Ð½Ð¾Ð¼"
    ],
    [
      "Ñ",
      "Ñ"
    ],
    [
      "Ðº",
      "Ñ"
    ],
    [
      "Ð½",
      "Ðµ"
    ],
    [
      "ÑÐ¾Ñ",
      "Ñ"
    ],
    [
      " Ð±Ð¸",
      "Ð±"
    ],
    [
      " Ð±Ð¸Ð±",
      "Ð»Ð¸"
    ],
    [
      " Ð±Ð¸Ð±Ð»Ð¸",
      "Ð¾"
    ],
    [
      " Ð±Ð¸Ð±Ð»Ð¸Ð¾",
      "ÑÐµ"
    ],
    [
      "m",
      "p"
    ],
    [
      "Ð»Ñ",
      "ÐµÑÑÑ"
    ],
    [
      " Ñ",
      "ÑÐ½"
    ],
    [
      " ÑÑÐ½",
      "Ðº"
    ],
    [
      "o",
      "n"
    ],
    [
      " Ð",
      "Ð¾Ð¶"
    ],
    [
      "Ñ",
      "ÐµÑ"
    ],
    [
      "Ð¾Ð´",
      "Ð°"
    ],
    [
      "Ñ",
      "Ð»Ñ"
    ],
    [
      " Ð¸",
      "Ð»Ð¸"
    ],
    [
      "Ð",
      "¡"
    ],
    [
      " ",
      "Ñ"
    ],
    [
      " Ð",
      " "
    ],
    [
      "ÑÐ°",
      "ÑÐ¸Ð¸"
    ],
    [
      " Ð¸Ð¼",
      "ÑÑÐµÑÑÐ²"
    ],
    [
      "Ð»",
      "Ñ"
    ],
    [
      "Ð¾Ñ",
      "ÑÐ´"
    ],
    [
      " ÑÐµ",
      "Ð³"
    ],
    [
      "Ñ",
      "Ð¾Ñ"
    ],
    [
      "Ð¸",
      "Ñ"
    ],
    [
      " Ð·",
      "Ð°"
    ],
    [
      " Ð°Ð½Ð°Ð»Ð¸",
      "Ð·"
    ],
    [
      "Ð¸ÑÐµÑÐº",
      "Ð¸Ð¹"
    ],
    [
      "Ð±",
      "ÑÑ"
    ],
    [
      "Ð±ÑÑ",
      "Ð³"
    ],
    [
      " ÑÐ°",
      "Ð·"
    ],
    [
      "Ð»",
      "Ñ"
    ],
    [
      "Ð·Ð²",
      "Ð¾Ð´"
    ],
    [
      "ÑÐ¾Ð²",
      "Ð°ÑÑ"
    ],
    [
      "Ð»Ð¸",
      "Ñ"
    ],
    [
      "Ð¾ÑÐ¼",
      "Ð°"
    ],
    [
      "Ñ",
      "Ðµ"
    ],
    [
      "ÑÐ°ÑÑÐ»Ð¸",
      "Ð²"
    ],
    [
      " Ñ",
      "ÐµÐ¼"
    ],
    [
      " ÑÐµÐ¼",
      "Ñ"
    ],
    [
      "Ñ",
      "Ð¾Ð¶"
    ],
    [
      " Ð´",
      "ÑÑ"
    ],
    [
      " Ð½Ðµ",
      "Ñ"
    ],
    [
      "-",
      "Ñ"
    ],
    [
      " Ð´",
      "Ð¾Ð¼"
    ],
    [
      " Ð´Ð¾Ð¼",
      "Ðµ"
    ],
    [
      " Ð",
      ""
    ],
    [
      " Ð",
      "Ð±"
    ],
    [
      "Ð°Ð½",
      "Ñ"
    ],
    [
      " Ð¶",
      "Ð°Ñ"
    ],
    [
      " Ð¶Ð°Ñ",
      "Ðº"
    ],
    [
      " ",
      "ÑÐµ"
    ],
    [
      " ÑÐµ",
      "Ð»"
    ],
    [
      " ÑÐµÐ»",
      "Ð¾Ð²"
    ],
    [
      " ÑÐ²",
      "Ð¾"
    ],
    [
      " Ðº",
      "Ð¾Ñ"
    ],
    [
      "Ð°Ð½",
      "Ð¸Ð¼"
    ],
    [
      " Ð¿",
      "ÐµÑÐµ"
    ],
    [
      "Ñ",
      "Ð¸Ð¼"
    ],
    [
      "Ð¾",
      "ÑÑÐ¸"
    ],
    [
      " Ð¾Ñ",
      "Ð¿ÑÐ°"
    ],
    [
      "Ð²Ð¸",
      "Ð»"
    ],
    [
      " Ð¼",
      "Ð¾ÑÑ"
    ],
    [
      "Ñ",
      "Ð½Ð¾"
    ],
    [
      " ",
      "ÑÐ°"
    ],
    [
      " Ð½Ðµ",
      "Ð±"
    ],
    [
      " Ð",
      "Ð¾"
    ],
    [
      " ÐÐ¾",
      "ÑÐº"
    ],
    [
      "ÐµÐ½",
      "Ñ"
    ],
    [
      " Ð»",
      "ÐµÑ"
    ],
    [
      " Ð¿",
      "Ð°Ñ"
    ],
    [
      " Ð¼",
      "Ð°Ð»"
    ],
    [
      " ",
      "Ñ"
    ],
    [
      " Ñ",
      "Ð¾ÑÑ"
    ],
    [
      "Ð¿",
      "Ð¸Ñ"
    ],
    [
      "Ð",
      ""
    ],
    [
      "Ð",
      "Ð°"
    ],
    [
      "Ñ",
      "Ð¸Ð½"
    ],
    [
      "Ð½Ð¾",
      "Ðµ"
    ],
    [
      " Ñ",
      "ÑÐ¾"
    ],
    [
      " Ð¾Ð±Ð»Ð°",
      "ÑÑ"
    ],
    [
      "ÑÐº",
      "Ñ"
    ],
    [
      "ÑÐºÑ",
      "Ñ"
    ],
    [
      "ÑÐºÑÑ",
      "ÑÑÐ²ÐµÐ½"
    ],
    [
      " Ð¸Ð½ÑÐµ",
      "Ð»"
    ],
    [
      " Ð¸Ð½ÑÐµÐ»",
      "Ð»ÐµÐº"
    ],
    [
      " Ðº",
      "Ð¾Ð¼"
    ],
    [
      " Ñ",
      "Ð¸ÑÑ"
    ],
    [
      " ÑÐ¸ÑÑ",
      "ÐµÐ¼"
    ],
    [
      "ÑÐ¾Ð½",
      "Ð½ÑÐµ"
    ],
    [
      " ÑÐµÑ",
      "Ð¸"
    ],
    [
      "ÑÐµÐ´",
      "ÑÑ"
    ],
    [
      " Ñ",
      "Ð¾Ð±"
    ],
    [
      "Ñ",
      "Ð¸Ñ"
    ],
    [
      " Ð¼",
      "Ð¾Ð´"
    ],
    [
      "Ð´",
      "Ð¾"
    ],
    [
      "Ñ",
      "Ð½"
    ],
    [
      " Ð½Ðµ",
      "Ð¹"
    ],
    [
      "Ð½ÑÐ¼",
      "Ð¸"
    ],
    [
      "Ð¾Ð»",
      "Ð¾Ð²"
    ],
    [
      "Ð¾Ð»Ð¾Ð²",
      "Ð½Ð¾Ð³Ð¾"
    ],
    [
      " Ð¼Ðµ",
      "Ñ"
    ],
    [
      " Ð¼ÐµÑ",
      "Ð°Ð½Ð¸"
    ],
    [
      "Ñ",
      "Ð²Ð°"
    ],
    [
      "Ñ",
      "Ð¾Ð¼"
    ],
    [
      "Ð½",
      "Ð¾Ð¼"
    ],
    [
      " Ñ",
      "ÑÐ±"
    ],
    [
      "Ð½",
      "Ñ"
    ],
    [
      "ÑÐµ",
      "Ð´Ðµ"
    ],
    [
      "Ð¶Ð´",
      "Ð°"
    ],
    [
      "Ð¾Ð²",
      "ÑÐµ"
    ],
    [
      "Ð¾Ð²ÑÐµ",
      "Ð¼ÐµÐ½"
    ],
    [
      " ",
      "ÑÐ¾"
    ],
    [
      "Ñ",
      "Ð½Ð¾"
    ],
    [
      " Ð¿",
      "Ð¾Ð»"
    ],
    [
      "Ð¾Ð¶",
      "ÐµÐ½Ð¸Ðµ"
    ],
    [
      "Ñ",
      "Ð»Ñ"
    ],
    [
      "Ð³",
      "Ð¾Ñ"
    ],
    [
      " Ð¸ÑÐ¿Ð¾Ð»ÑÐ·Ñ",
      "ÑÑ"
    ],
    [
      " Ð¸Ð·",
      "Ð²"
    ],
    [
      "Ð²",
      "Ð¾Ð»"
    ],
    [
      "ÑÐ¸",
      "Ð¾Ð½"
    ],
    [
      " ÐµÑÑ",
      "ÐµÑÑÐ²"
    ],
    [
      " ÐµÑÑÐµÑÑÐ²",
      "ÐµÐ½"
    ],
    [
      " ÐµÑÑÐµÑÑÐ²ÐµÐ½",
      "Ð½Ð¾Ð³Ð¾"
    ],
    [
      "Ð½",
      "Ð¸Ð¼"
    ],
    [
      "Ð»",
      "Ð¾"
    ],
    [
      " Ð½",
      "Ð¾Ð²"
    ],
    [
      " Ð¿Ð¾Ð´",
      "Ð´"
    ],
    [
      " Ð¿Ð¾Ð´Ð´",
      "ÐµÑ"
    ],
    [
      " Ð¿Ð¾Ð´Ð´ÐµÑ",
      "Ð¶"
    ],
    [
      " Ñ",
      "ÐºÐ¾Ð½Ð¾Ð¼"
    ],
    [
      " ÑÐºÐ¾Ð½Ð¾Ð¼",
      "Ð¸"
    ],
    [
      " ÑÐºÐ¾Ð½Ð¾Ð¼Ð¸",
      "ÐºÐ¸"
    ],
    [
      "ÑÑÐ²",
      "Ð°"
    ],
    [
      " ÑÐ°Ð·Ð²Ð¸Ñ",
      "Ð¸Ðµ"
    ],
    [
      " Ð¸Ð½",
      "Ñ"
    ],
    [
      "ÑÑ",
      "ÐºÑ"
    ],
    [
      "Ñ",
      "Ð°"
    ],
    [
      " Ðº",
      "Ð¾Ð½"
    ],
    [
      "Ñ",
      "ÐµÑ"
    ],
    [
      "ÑÐµÑ",
      "ÐµÐ½"
    ],
    [
      "Ð¼",
      "Ð°Ñ"
    ],
    [
      " Ð²",
      "Ð¾Ð¿"
    ],
    [
      " Ð²Ð¾Ð¿",
      "ÑÐ¾ÑÑ"
    ],
    [
      "Ð½",
      "Ð¸"
    ],
    [
      "Ð¾Ð³",
      "Ð¾Ð²"
    ],
    [
      "Ð¾Ð³Ð¾Ð²",
      "Ð¾Ñ"
    ],
    [
      "Ñ",
      "Ñ"
    ],
    [
      "Ð",
      ""
    ],
    [
      "Ð°Ð½",
      "Ð¾Ð²"
    ],
    [
      " Ð±Ð¸Ð±Ð»Ð¸Ð¾ÑÐµ",
      "ÐºÐ¸"
    ],
    [
      "Ð¹",
      "ÑÐµ"
    ],
    [
      "Ð´",
      "Ñ"
    ],
    [
      " ",
      "i"
    ],
    [
      "s",
      "t"
    ],
    [
      " n",
      "u"
    ],
    [
      " nu",
      "mp"
    ],
    [
      " nump",
      "y"
    ],
    [
      "Ñ",
      "Ð¸"
    ],
    [
      " Ð¿",
      "Ð¾Ð¼"
    ],
    [
      " Ð¿Ð¾Ð¼",
      "Ð¾"
    ],
    [
      " Ð¿Ð¾Ð¼Ð¾",
      "Ñ"
    ],
    [
      " Ð¿Ð¾Ð¼Ð¾Ñ",
      "Ñ"
    ],
    [
      " Ð¿Ð¾Ð¼Ð¾ÑÑ",
      "Ñ"
    ],
    [
      " n",
      "p"
    ],
    [
      "Ð°Ð½Ð¸",
      "Ðµ"
    ],
    [
      " Ð¼",
      "Ð°"
    ],
    [
      "Ñ",
      "Ñ"
    ],
    [
      "ÑÑ",
      "Ð¸"
    ],
    [
      " Ð¾",
      "Ñ"
    ],
    [
      " Ð¾Ñ",
      "ÑÑÐµÑÑÐ²"
    ],
    [
      " Ð¾ÑÑÑÐµÑÑÐ²",
      "Ð»ÑÐµÑÑÑ"
    ],
    [
      "(",
      ")"
    ],
    [
      "()",
      "."
    ],
    [
      " ",
      "r"
    ],
    [
      " r",
      "e"
    ],
    [
      " ",
      "P"
    ],
    [
      "Ð",
      "ÑÐ¸"
    ],
    [
      "Ð²",
      "ÐµÑ"
    ],
    [
      " Ð",
      ""
    ],
    [
      " ÐÐ¾Ð¶",
      "ÐµÑ"
    ],
    [
      "Ñ",
      "Ñ"
    ],
    [
      " ",
      "Ñ"
    ],
    [
      "Ð¾",
      "Ñ"
    ],
    [
      "Ð¾Ñ",
      "Ð¸"
    ],
    [
      "Ñ",
      "Ð¾Ð´"
    ],
    [
      " Ð²",
      "Ñ"
    ],
    [
      " Ð²Ñ",
      "Ñ"
    ],
    [
      "Ð¾Ñ",
      "Ñ"
    ],
    [
      "Ð¾ÑÑ",
      "Ð¸Ð¹"
    ],
    [
      "Ð¾ÑÑÐ¸Ð¹",
      "ÑÐº"
    ],
    [
      " Ð",
      "¤"
    ],
    [
      " Ð¤",
      "Ðµ"
    ],
    [
      " Ð¤Ðµ",
      "Ð´Ðµ"
    ],
    [
      " Ñ",
      "ÑÐ¶"
    ],
    [
      " Ð¸Ð¼ÑÑÐµÑÑÐ²",
      "Ð°"
    ],
    [
      "Ð»",
      "ÐµÐ½Ð¸Ñ"
    ],
    [
      " Ð°",
      "Ñ"
    ],
    [
      "Ð²Ð¸",
      "Ð¶"
    ],
    [
      " Ð·Ð°Ðº",
      "Ð»Ñ"
    ],
    [
      " Ð·Ð°ÐºÐ»Ñ",
      "Ñ"
    ],
    [
      " Ð·Ð°ÐºÐ»ÑÑ",
      "ÑÐ½"
    ],
    [
      "Ñ",
      "Ð¾Ðº"
    ],
    [
      " Ð±",
      "Ð¾Ð»Ðµ"
    ],
    [
      " Ð±Ð¾Ð»Ðµ",
      "Ðµ"
    ],
    [
      " Ð³",
      "Ð¾ÑÑÐ´"
    ],
    [
      " Ð³Ð¾ÑÑÐ´",
      "Ð°Ñ"
    ],
    [
      " ÑÐµÐ³",
      "Ð¸ÑÑ"
    ],
    [
      " ÑÐµÐ³Ð¸ÑÑ",
      "ÑÐ°ÑÐ¸Ð¸"
    ],
    [
      "Ð°",
      "ÐµÑÑÑ"
    ],
    [
      "Ð¾Ð¼",
      "ÐµÐ½"
    ],
    [
      "Ñ",
      "ÐµÑÐ¸"
    ],
    [
      "ÑÐµÑÐ¸",
      "Ð°Ð»Ñ"
    ],
    [
      "Ð½Ð°",
      "Ñ"
    ],
    [
      " Ñ",
      "Ð°Ðº"
    ],
    [
      " ÑÐ°Ðº",
      "ÑÐ¾Ñ"
    ],
    [
      " ÑÐ°Ð·Ð²Ð¸Ñ",
      "Ð¸Ñ"
    ],
    [
      " Ð·Ð°",
      "Ð±"
    ],
    [
      " Ð·Ð°Ð±",
      "Ð¾Ð»Ðµ"
    ],
    [
      " Ð·Ð°Ð±Ð¾Ð»Ðµ",
      "Ð²"
    ],
    [
      "ÑÐ»Ñ",
      "Ñ"
    ],
    [
      "Ð¾Ð»",
      "Ñ"
    ],
    [
      " Ð´",
      "Ð¸"
    ],
    [
      " Ð´Ð¸",
      "Ð°"
    ],
    [
      " Ð¾Ð±",
      "Ñ"
    ],
    [
      "ÑÑ",
      "Ñ"
    ],
    [
      "Ð¾",
      "Ñ"
    ],
    [
      " Ð",
      ""
    ],
    [
      "Ð¾Ð»",
      "Ð¸"
    ],
    [
      " Ð³",
      "Ð¾Ñ"
    ],
    [
      "Ð",
      "ÐµÑ"
    ],
    [
      "ÐÐµÑ",
      "ÐµÑ"
    ],
    [
      "ÐÐµÑÐµÑ",
      "Ð±ÑÑÐ³"
    ],
    [
      " Ð",
      "Ð¾Ð²"
    ],
    [
      "Ð°",
      "Ð·"
    ],
    [
      "Ð·Ð²Ð¾Ð´",
      "Ð½ÑÐµ"
    ],
    [
      " ÑÐ°Ð·",
      "Ð»Ð¸Ñ"
    ],
    [
      " ÑÐ°Ð·Ð»Ð¸Ñ",
      "Ð½ÑÑ"
    ],
    [
      " Ð¸Ð·",
      "Ñ"
    ],
    [
      " Ð¸Ð·Ñ",
      "ÑÐ°"
    ],
    [
      " Ð¿ÑÐ¾",
      "Ð¸"
    ],
    [
      " ÑÐ°",
      "Ñ"
    ],
    [
      " Ð°",
      "Ð²"
    ],
    [
      "Ð»",
      "ÐµÐ¹"
    ],
    [
      "Ð´",
      "Ð°"
    ],
    [
      "Ñ",
      "Ñ"
    ],
    [
      "ÑÑ",
      "Ð°Ñ"
    ],
    [
      "Ð",
      "ÑÐµ"
    ],
    [
      " Ñ",
      "ÑÐ°ÑÑÐ»Ð¸Ð²"
    ],
    [
      " ÑÑÐ°ÑÑÐ»Ð¸Ð²",
      "Ñ"
    ],
    [
      " ÑÑÐ°ÑÑÐ»Ð¸Ð²Ñ",
      "Ðµ"
    ],
    [
      " ÑÐµÐ¼Ñ",
      "Ð¸"
    ],
    [
      " Ð¿Ð¾",
      "ÑÐ¾Ð¶"
    ],
    [
      " Ð¿Ð¾ÑÐ¾Ð¶",
      "Ð¸"
    ],
    [
      " Ð´ÑÑ",
      "Ð³"
    ],
    [
      " Ð´ÑÑ",
      "Ð³Ð°"
    ],
    [
      " ÐºÐ°",
      "Ð¶Ð´"
    ],
    [
      " ÐºÐ°Ð¶Ð´",
      "Ð°Ñ"
    ],
    [
      " Ð½ÐµÑ",
      "ÑÐ°ÑÑÐ»Ð¸Ð²"
    ],
    [
      " Ð½ÐµÑÑÐ°ÑÑÐ»Ð¸Ð²",
      "Ð°Ñ"
    ],
    [
      " ÑÐµÐ¼Ñ",
      "Ñ"
    ],
    [
      " Ð½ÐµÑ",
      "ÑÐ°ÑÑÐ»Ð¸"
    ],
    [
      " Ð½ÐµÑÑÐ°ÑÑÐ»Ð¸",
      "Ð²Ð°"
    ],
    [
      "-Ñ",
      "Ð²"
    ],
    [
      "-ÑÐ²",
      "Ð¾"
    ],
    [
      "-ÑÐ²Ð¾",
      "ÐµÐ¼"
    ],
    [
      "-ÑÐ²Ð¾ÐµÐ¼",
      "Ñ"
    ],
    [
      " Ð",
      "Ñ"
    ],
    [
      " ÐÑ",
      "Ñ"
    ],
    [
      " Ñ",
      "Ð¼"
    ],
    [
      " ÑÐ¼",
      "Ðµ"
    ],
    [
      " ÑÐ¼Ðµ",
      "Ñ"
    ],
    [
      " ÑÐ¼ÐµÑ",
      "Ð°Ð»"
    ],
    [
      " ÑÐ¼ÐµÑÐ°Ð»",
      "Ð¾Ñ"
    ],
    [
      " ÑÐ¼ÐµÑÐ°Ð»Ð¾Ñ",
      "Ñ"
    ],
    [
      " ÐÐ±",
      "Ð»"
    ],
    [
      " ÐÐ±Ð»",
      "Ð¾Ð½"
    ],
    [
      " ÐÐ±Ð»Ð¾Ð½",
      "ÑÐº"
    ],
    [
      " ÐÐ±Ð»Ð¾Ð½ÑÐº",
      "Ð¸Ñ"
    ],
    [
      " Ð",
      ""
    ],
    [
      " Ð",
      "ÐµÐ½"
    ],
    [
      " ÐÐµÐ½",
      "Ð°"
    ],
    [
      " Ñ",
      "Ð·Ð½Ð°"
    ],
    [
      " ÑÐ·Ð½Ð°",
      "Ð»Ð°"
    ],
    [
      " Ð¼",
      "ÑÐ¶"
    ],
    [
      " ÑÐ²",
      "Ñ"
    ],
    [
      " ÑÐ²Ñ",
      "Ð·Ð¸"
    ],
    [
      " Ð±Ñ",
      "Ð²"
    ],
    [
      " Ð±ÑÐ²",
      "ÑÐµ"
    ],
    [
      " Ð±ÑÐ²ÑÐµ",
      "Ñ"
    ],
    [
      " Ð¸",
      "Ñ"
    ],
    [
      " Ñ",
      "ÑÐ°Ð½"
    ],
    [
      " ÑÑÐ°Ð½",
      "Ñ"
    ],
    [
      " ÑÑÐ°Ð½Ñ",
      "ÑÐ¶"
    ],
    [
      " ÑÑÐ°Ð½ÑÑÐ¶",
      "ÐµÐ½"
    ],
    [
      " ÑÑÐ°Ð½ÑÑÐ¶ÐµÐ½",
      "Ðº"
    ],
    [
      " ÑÑÐ°Ð½ÑÑÐ¶ÐµÐ½Ðº",
      "Ð¾"
    ],
    [
      " ÑÑÐ°Ð½ÑÑÐ¶ÐµÐ½ÐºÐ¾",
      "Ñ"
    ],
    [
      "-",
      "Ð³"
    ],
    [
      "-Ð³",
      "Ñ"
    ],
    [
      "-Ð³Ñ",
      "Ð²ÐµÑ"
    ],
    [
      "-Ð³ÑÐ²ÐµÑ",
      "Ð½"
    ],
    [
      "-Ð³ÑÐ²ÐµÑÐ½",
      "Ð°Ð½Ñ"
    ],
    [
      "-Ð³ÑÐ²ÐµÑÐ½Ð°Ð½Ñ",
      "Ðº"
    ],
    [
      "-Ð³ÑÐ²ÐµÑÐ½Ð°Ð½ÑÐº",
      "Ð¾Ð¹"
    ],
    [
      "Ð",
      ""
    ],
    [
      " Ð½Ð°",
      "Ñ"
    ],
    [
      " Ð½Ð°Ñ",
      "Ð°Ð»"
    ],
    [
      " Ð½Ð°ÑÐ°Ð»",
      "Ðµ"
    ],
    [
      " Ð¸",
      "Ñ"
    ],
    [
      " Ð¸Ñ",
      "Ð»Ñ"
    ],
    [
      " Ñ",
      "ÑÐµ"
    ],
    [
      " ÑÑÐµ",
      "Ð·Ð²"
    ],
    [
      " ÑÑÐµÐ·Ð²",
      "Ñ"
    ],
    [
      " ÑÑÐµÐ·Ð²Ñ",
      "ÑÐ°"
    ],
    [
      " ÑÑÐµÐ·Ð²ÑÑÐ°",
      "Ð¹"
    ],
    [
      " ÑÑÐµÐ·Ð²ÑÑÐ°Ð¹",
      "Ð½Ð¾"
    ],
    [
      " Ð¶Ð°ÑÐº",
      "Ð¾Ðµ"
    ],
    [
      " Ð²",
      "ÑÐµ"
    ],
    [
      " Ð²ÑÐµ",
      "Ð¼"
    ],
    [
      " Ð²ÑÐµÐ¼",
      "Ñ"
    ],
    [
      " Ð²Ðµ",
      "Ñ"
    ],
    [
      " Ð²ÐµÑ",
      "ÐµÑ"
    ],
    [
      " Ð¾Ð´",
      "Ð¸Ð½"
    ],
    [
      " Ð¼",
      "Ð¾Ð»"
    ],
    [
      " Ð¼Ð¾Ð»",
      "Ð¾Ð´"
    ],
    [
      " Ð¼Ð¾Ð»Ð¾Ð´",
      "Ð¾Ð¹"
    ],
    [
      " ÑÐµÐ»Ð¾Ð²",
      "ÐµÐº"
    ],
    [
      " Ð²Ñ",
      "ÑÐµ"
    ],
    [
      " Ð²ÑÑÐµ",
      "Ð»"
    ],
    [
      " ÑÐ²Ð¾",
      "ÐµÐ¹"
    ],
    [
      " ÐºÐ°",
      "Ð¼"
    ],
    [
      " ÐºÐ°Ð¼",
      "Ð¾Ñ"
    ],
    [
      " ÐºÐ°Ð¼Ð¾Ñ",
      "ÐºÐ¸"
    ],
    [
      " ÐºÐ¾Ñ",
      "Ð¾Ñ"
    ],
    [
      " ÐºÐ¾ÑÐ¾Ñ",
      "Ñ"
    ],
    [
      " ÐºÐ¾ÑÐ¾ÑÑ",
      "Ñ"
    ],
    [
      " Ð½",
      "Ð°Ð½Ð¸Ð¼"
    ],
    [
      " Ð½Ð°Ð½Ð¸Ð¼",
      "Ð°Ð»"
    ],
    [
      " Ð¶",
      "Ð¸"
    ],
    [
      " Ð¶Ð¸",
      "Ð»Ñ"
    ],
    [
      " Ð¶Ð¸Ð»Ñ",
      "Ñ"
    ],
    [
      " Ð¶Ð¸Ð»ÑÑ",
      "Ð¾Ð²"
    ],
    [
      "-",
      "Ð¼"
    ],
    [
      " Ð¿ÐµÑÐµ",
      "Ñ"
    ],
    [
      " Ð¿ÐµÑÐµÑ",
      "Ð»"
    ],
    [
      " Ð¿ÐµÑÐµÑÐ»",
      "ÐºÐµ"
    ],
    [
      " Ñ",
      "Ð»Ð¸"
    ],
    [
      " ÑÐ»Ð¸",
      "Ñ"
    ],
    [
      " ÑÐ»Ð¸Ñ",
      "Ñ"
    ],
    [
      " Ð¼Ðµ",
      "Ð´"
    ],
    [
      " Ð¼ÐµÐ´",
      "Ð»ÐµÐ½"
    ],
    [
      " Ð¼ÐµÐ´Ð»ÐµÐ½",
      "Ð½Ð¾"
    ],
    [
      " Ðº",
      "Ð°Ðº"
    ],
    [
      " Ð½",
      "ÐµÑÐµ"
    ],
    [
      " Ð½ÐµÑÐµ",
      "ÑÐ¸Ð¼"
    ],
    [
      " Ð½ÐµÑÐµÑÐ¸Ð¼",
      "Ð¾ÑÑÐ¸"
    ],
    [
      " Ð¾ÑÐ¿ÑÐ°",
      "Ð²Ð¸Ð»"
    ],
    [
      " Ð¾ÑÐ¿ÑÐ°Ð²Ð¸Ð»",
      "ÑÑ"
    ],
    [
      "-",
      "Ð½"
    ],
    [
      "-Ð½",
      "Ñ"
    ],
    [
      " Ð¼Ð¾ÑÑ",
      "Ñ"
    ],
    [
      "Ð",
      ""
    ],
    [
      "Ð",
      "Ð´"
    ],
    [
      "ÐÐ´",
      "Ð½Ð°"
    ],
    [
      "ÐÐ´Ð½Ð°",
      "Ð¶Ð´"
    ],
    [
      "ÐÐ´Ð½Ð°Ð¶Ð´",
      "Ñ"
    ],
    [
      " Ð²Ðµ",
      "ÑÐ½Ð¾"
    ],
    [
      " Ð²ÐµÑÐ½Ð¾",
      "Ñ"
    ],
    [
      " ÑÐ°",
      "Ñ"
    ],
    [
      " Ð½ÐµÐ±",
      "Ñ"
    ],
    [
      " Ð½ÐµÐ±Ñ",
      "Ð²"
    ],
    [
      " Ð½ÐµÐ±ÑÐ²",
      "Ð°Ð»"
    ],
    [
      " Ð½ÐµÐ±ÑÐ²Ð°Ð»",
      "Ð¾"
    ],
    [
      " Ð¶Ð°ÑÐº",
      "Ð¾Ð³Ð¾"
    ],
    [
      " Ð·Ð°Ðº",
      "Ð°Ñ"
    ],
    [
      " Ð·Ð°ÐºÐ°Ñ",
      "Ð°"
    ],
    [
      " ÐÐ¾ÑÐº",
      "Ð²Ðµ"
    ],
    [
      " Ð",
      "Ð°Ñ"
    ],
    [
      " ÐÐ°Ñ",
      "ÑÐ¸"
    ],
    [
      " ÐÐ°ÑÑÐ¸",
      "Ð°Ñ"
    ],
    [
      " ÐÐ°ÑÑÐ¸Ð°Ñ",
      "Ñ"
    ],
    [
      " ÐÐ°ÑÑÐ¸Ð°ÑÑ",
      "Ð¸Ñ"
    ],
    [
      " Ð¿Ñ",
      "ÑÐ´"
    ],
    [
      " Ð¿ÑÑÐ´",
      "Ð°"
    ],
    [
      " Ð¿ÑÑÐ´Ð°",
      "Ñ"
    ],
    [
      " Ð¿Ð¾",
      "Ñ"
    ],
    [
      " Ð¿Ð¾Ñ",
      "Ð²Ð¸"
    ],
    [
      " Ð¿Ð¾ÑÐ²Ð¸",
      "Ð»Ð¸ÑÑ"
    ],
    [
      " Ð´",
      "Ð²Ð°"
    ],
    [
      " Ð³",
      "ÑÐ°"
    ],
    [
      " Ð³ÑÐ°",
      "Ð¶Ð´"
    ],
    [
      " Ð³ÑÐ°Ð¶Ð´",
      "Ð°Ð½Ð¸"
    ],
    [
      " Ð³ÑÐ°Ð¶Ð´Ð°Ð½Ð¸",
      "Ð½Ð°"
    ],
    [
      " Ð",
      "ÐµÑ"
    ],
    [
      " ÐÐµÑ",
      "Ð²"
    ],
    [
      " ÐÐµÑÐ²",
      "ÑÐ¹"
    ],
    [
      " Ð½",
      "Ð¸Ñ"
    ],
    [
      " Ð¾Ð´",
      "ÐµÑ"
    ],
    [
      " Ð¾Ð´ÐµÑ",
      "ÑÐ¹"
    ],
    [
      " ÑÐµÑ",
      "ÐµÐ½Ñ"
    ],
    [
      " ÑÐµÑÐµÐ½Ñ",
      "ÐºÑ"
    ],
    [
      " ÑÐµÑÐµÐ½ÑÐºÑ",
      "Ñ"
    ],
    [
      " Ð»ÐµÑ",
      "Ð½"
    ],
    [
      " Ð»ÐµÑÐ½",
      "Ñ"
    ],
    [
      " Ð»ÐµÑÐ½Ñ",
      "Ñ"
    ],
    [
      " Ð¿Ð°Ñ",
      "Ñ"
    ],
    [
      " Ð¼Ð°Ð»",
      "ÐµÐ½Ñ"
    ],
    [
      " Ð¼Ð°Ð»ÐµÐ½Ñ",
      "Ðº"
    ],
    [
      " Ð¼Ð°Ð»ÐµÐ½ÑÐº",
      "Ð¾Ð³Ð¾"
    ],
    [
      " ÑÐ¾ÑÑ",
      "Ð°"
    ],
    [
      " Ñ",
      "Ð¿Ð¸Ñ"
    ],
    [
      " ÑÐ¿Ð¸Ñ",
      "Ð°Ð½"
    ],
    [
      " Ð»",
      "Ñ"
    ],
    [
      " Ð»Ñ",
      "Ñ"
    ],
    [
      "ÐÐ°",
      "ÑÐ¸Ð½"
    ],
    [
      "ÐÐ°ÑÐ¸Ð½",
      "Ð½Ð¾Ðµ"
    ],
    [
      " Ð¾Ð±ÑÑ",
      "ÐµÐ½Ð¸Ðµ"
    ],
    [
      " Ð¾Ð±Ð»Ð°ÑÑ",
      "Ñ"
    ],
    [
      " Ð¸",
      "ÑÐºÑÑÑÑÐ²ÐµÐ½"
    ],
    [
      " Ð¸ÑÐºÑÑÑÑÐ²ÐµÐ½",
      "Ð½Ð¾Ð³Ð¾"
    ],
    [
      " Ð¸Ð½ÑÐµÐ»Ð»ÐµÐº",
      "ÑÐ°"
    ],
    [
      " ÐºÐ¾Ñ",
      "Ð¾ÑÐ°"
    ],
    [
      " ÐºÐ¾ÑÐ¾ÑÐ°",
      "Ñ"
    ],
    [
      " Ð¸ÑÐ¿Ð¾Ð»ÑÐ·Ñ",
      "ÐµÑ"
    ],
    [
      " ÑÑ",
      "Ð°Ñ"
    ],
    [
      " ÑÑÐ°Ñ",
      "Ð¸"
    ],
    [
      " ÑÑÐ°ÑÐ¸",
      "ÑÑÐ¸"
    ],
    [
      " ÑÑÐ°ÑÐ¸ÑÑÐ¸",
      "ÑÐµÑÐº"
    ],
    [
      " ÑÑÐ°ÑÐ¸ÑÑÐ¸ÑÐµÑÐº",
      "Ð¸Ðµ"
    ],
    [
      " ÐºÐ¾Ð¼",
      "Ð¿"
    ],
    [
      " ÐºÐ¾Ð¼Ð¿",
      "Ñ"
    ],
    [
      " ÐºÐ¾Ð¼Ð¿Ñ",
      "ÑÑ"
    ],
    [
      " ÐºÐ¾Ð¼Ð¿ÑÑÑ",
      "ÐµÑ"
    ],
    [
      " ÐºÐ¾Ð¼Ð¿ÑÑÑÐµÑ",
      "Ð½ÑÑ"
    ],
    [
      " Ð",
      "ÐµÐ¹"
    ],
    [
      " ÐÐµÐ¹",
      "ÑÐ¾Ð½Ð½ÑÐµ"
    ],
    [
      " Ð¿",
      "ÑÐµÐ´ÑÑ"
    ],
    [
      " Ð¿ÑÐµÐ´ÑÑ",
      "Ð°Ð²"
    ],
    [
      " Ð¿ÑÐµÐ´ÑÑÐ°Ð²",
      "Ð»Ñ"
    ],
    [
      " Ð¿ÑÐµÐ´ÑÑÐ°Ð²Ð»Ñ",
      "ÑÑ"
    ],
    [
      " ÑÐ¾Ð±",
      "Ð¾Ð¹"
    ],
    [
      " Ð²Ñ",
      "ÑÐ¸Ñ"
    ],
    [
      " Ð²ÑÑÐ¸Ñ",
      "Ð»Ð¸"
    ],
    [
      " Ð²ÑÑÐ¸ÑÐ»Ð¸",
      "ÑÐµÐ»Ñ"
    ],
    [
      " Ð²ÑÑÐ¸ÑÐ»Ð¸ÑÐµÐ»Ñ",
      "Ð½ÑÐµ"
    ],
    [
      " Ð¼Ð¾Ð´",
      "Ðµ"
    ],
    [
      " Ð¼Ð¾Ð´Ðµ",
      "Ð»Ð¸"
    ],
    [
      " Ð²",
      "Ð´Ð¾"
    ],
    [
      " Ð²Ð´Ð¾",
      "ÑÐ½"
    ],
    [
      " Ð²Ð´Ð¾ÑÐ½",
      "Ð¾Ð²"
    ],
    [
      " Ð²Ð´Ð¾ÑÐ½Ð¾Ð²",
      "Ð»ÑÐ½"
    ],
    [
      " Ð²Ð´Ð¾ÑÐ½Ð¾Ð²Ð»ÑÐ½",
      "Ð½ÑÐµ"
    ],
    [
      " Ð±Ð¸",
      "Ð¾Ð»Ð¾Ð³Ð¸ÑÐµÑÐº"
    ],
    [
      " Ð±Ð¸Ð¾Ð»Ð¾Ð³Ð¸ÑÐµÑÐº",
      "Ð¸Ð¼"
    ],
    [
      " Ð±Ð¸Ð¾Ð»Ð¾Ð³Ð¸ÑÐµÑÐºÐ¸Ð¼",
      "Ð¸"
    ],
    [
      " Ð½ÐµÐ¹",
      "ÑÐ¾Ð½"
    ],
    [
      " Ð½ÐµÐ¹ÑÐ¾Ð½",
      "Ð½ÑÐ¼Ð¸"
    ],
    [
      " ÑÐµÑ",
      "Ñ"
    ],
    [
      " ÑÐµÑÑ",
      "Ð¼Ð¸"
    ],
    [
      " Ð³",
      "Ð¾Ð»Ð¾Ð²Ð½Ð¾Ð³Ð¾"
    ],
    [
      " Ð¼",
      "Ð¾Ð·"
    ],
    [
      " Ð¼Ð¾Ð·",
      "Ð³Ð°"
    ],
    [
      "Ð",
      ""
    ],
    [
      "Ð",
      "Ð²"
    ],
    [
      "ÐÐ²",
      "Ð°Ð½Ñ"
    ],
    [
      "ÐÐ²Ð°Ð½Ñ",
      "Ð¾Ð²"
    ],
    [
      "ÐÐ²Ð°Ð½ÑÐ¾Ð²",
      "Ð°Ñ"
    ],
    [
      " Ð¼ÐµÑÐ°Ð½Ð¸",
      "ÐºÐ°"
    ],
    [
      " Ð¾",
      "Ð¿"
    ],
    [
      " Ð¾Ð¿",
      "Ð¸Ñ"
    ],
    [
      " Ð¾Ð¿Ð¸Ñ",
      "ÑÐ²Ð°"
    ],
    [
      " Ð¾Ð¿Ð¸ÑÑÐ²Ð°",
      "ÐµÑ"
    ],
    [
      " Ð¿",
      "Ð¾Ð²"
    ],
    [
      " Ð¿Ð¾Ð²",
      "Ðµ"
    ],
    [
      " Ð¿Ð¾Ð²Ðµ",
      "Ð´ÐµÐ½Ð¸Ðµ"
    ],
    [
      " Ð¼",
      "Ð°Ñ"
    ],
    [
      " Ð¼Ð°Ñ",
      "ÐµÑÐ¸"
    ],
    [
      " Ð¼Ð°ÑÐµÑÐ¸",
      "Ð¸"
    ],
    [
      " Ð°",
      "ÑÐ¾Ð¼"
    ],
    [
      " Ð°ÑÐ¾Ð¼",
      "Ð½Ð¾Ð¼"
    ],
    [
      " ÑÑÐ±",
      "Ð°Ñ"
    ],
    [
      " ÑÑÐ±Ð°Ñ",
      "Ð¾Ð¼"
    ],
    [
      " ÑÑÐ±Ð°ÑÐ¾Ð¼",
      "Ð½Ð¾Ð¼"
    ],
    [
      " Ñ",
      "ÑÐ¾Ð²"
    ],
    [
      " ÑÑÐ¾Ð²",
      "Ð½Ñ"
    ],
    [
      " ÑÑÐ¾Ð²Ð½Ñ",
      "Ñ"
    ],
    [
      " Ð",
      "Ñ"
    ],
    [
      " ÐÑ",
      "Ð¸Ð½"
    ],
    [
      " ÐÑÐ¸Ð½",
      "ÑÐ¸"
    ],
    [
      " ÐÑÐ¸Ð½ÑÐ¸",
      "Ð¿"
    ],
    [
      " Ð½Ðµ",
      "Ð¾Ð¿"
    ],
    [
      " Ð½ÐµÐ¾Ð¿",
      "ÑÐµÐ´Ðµ"
    ],
    [
      " Ð½ÐµÐ¾Ð¿ÑÐµÐ´Ðµ",
      "Ð»ÑÐ½"
    ],
    [
      " Ð½ÐµÐ¾Ð¿ÑÐµÐ´ÐµÐ»ÑÐ½",
      "Ð½Ð¾ÑÑÐ¸"
    ],
    [
      " Ð",
      ""
    ],
    [
      " Ð",
      "ÐµÐ¹"
    ],
    [
      " ÐÐµÐ¹",
      "Ð·"
    ],
    [
      " ÐÐµÐ¹Ð·",
      "ÐµÐ½"
    ],
    [
      " ÐÐµÐ¹Ð·ÐµÐ½",
      "Ð±"
    ],
    [
      " ÐÐµÐ¹Ð·ÐµÐ½Ð±",
      "ÐµÑ"
    ],
    [
      " ÐÐµÐ¹Ð·ÐµÐ½Ð±ÐµÑ",
      "Ð³Ð°"
    ],
    [
      " Ñ",
      "Ñ"
    ],
    [
      " ÑÑ",
      "Ð²ÐµÑ"
    ],
    [
      " ÑÑÐ²ÐµÑ",
      "Ð¶Ð´Ð°"
    ],
    [
      " ÑÑÐ²ÐµÑÐ¶Ð´Ð°",
      "ÐµÑ"
    ],
    [
      " Ð½Ðµ",
      "Ð²"
    ],
    [
      " Ð½ÐµÐ²",
      "Ð¾Ð·"
    ],
    [
      " Ð½ÐµÐ²Ð¾Ð·",
      "Ð¼"
    ],
    [
      " Ð½ÐµÐ²Ð¾Ð·Ð¼",
      "Ð¾Ð¶"
    ],
    [
      " Ð½ÐµÐ²Ð¾Ð·Ð¼Ð¾Ð¶",
      "Ð½Ð¾"
    ],
    [
      " Ð¾Ð´",
      "Ð½"
    ],
    [
      " Ð¾Ð´Ð½",
      "Ð¾Ð²ÑÐµÐ¼ÐµÐ½"
    ],
    [
      " Ð¾Ð´Ð½Ð¾Ð²ÑÐµÐ¼ÐµÐ½",
      "Ð½Ð¾"
    ],
    [
      " ÑÐ¾",
      "ÑÐ½Ð¾"
    ],
    [
      " Ð¸Ð·",
      "Ð¼"
    ],
    [
      " Ð¸Ð·Ð¼",
      "ÐµÑ"
    ],
    [
      " Ð¸Ð·Ð¼ÐµÑ",
      "Ð¸Ñ"
    ],
    [
      " Ð¸Ð·Ð¼ÐµÑÐ¸Ñ",
      "Ñ"
    ],
    [
      " Ð¿Ð¾Ð»",
      "Ð¾Ð¶ÐµÐ½Ð¸Ðµ"
    ],
    [
      " Ð¸Ð¼",
      "Ð¿"
    ],
    [
      " Ð¸Ð¼Ð¿",
      "ÑÐ»Ñ"
    ],
    [
      " Ð¸Ð¼Ð¿ÑÐ»Ñ",
      "Ñ"
    ],
    [
      " ÑÐ°",
      "ÑÑÐ¸"
    ],
    [
      " ÑÐ°ÑÑÐ¸",
      "Ñ"
    ],
    [
      " ÑÐ°ÑÑÐ¸Ñ",
      "Ñ"
    ],
    [
      "Ð",
      "Ð»"
    ],
    [
      "ÐÐ»",
      "Ð³Ð¾Ñ"
    ],
    [
      "ÐÐ»Ð³Ð¾Ñ",
      "Ð¸Ñ"
    ],
    [
      "ÐÐ»Ð³Ð¾ÑÐ¸Ñ",
      "Ð¼"
    ],
    [
      "ÐÐ»Ð³Ð¾ÑÐ¸ÑÐ¼",
      "Ñ"
    ],
    [
      " Ð³",
      "Ð»"
    ],
    [
      " Ð³Ð»",
      "ÑÐ±"
    ],
    [
      " Ð³Ð»ÑÐ±",
      "Ð¾Ðº"
    ],
    [
      " Ð³Ð»ÑÐ±Ð¾Ðº",
      "Ð¾Ð³Ð¾"
    ],
    [
      " Ð¼",
      "Ð½Ð¾Ð³Ð¾"
    ],
    [
      " Ð¼Ð½Ð¾Ð³Ð¾",
      "Ñ"
    ],
    [
      " Ð¼Ð½Ð¾Ð³Ð¾Ñ",
      "Ð»"
    ],
    [
      " Ð¼Ð½Ð¾Ð³Ð¾ÑÐ»",
      "Ð¾Ð¹"
    ],
    [
      " Ð¼Ð½Ð¾Ð³Ð¾ÑÐ»Ð¾Ð¹",
      "Ð½ÑÐµ"
    ],
    [
      " Ð½ÐµÐ¹",
      "ÑÐ¾Ð½Ð½ÑÐµ"
    ],
    [
      " Ð¸Ð·Ð²",
      "Ð»Ðµ"
    ],
    [
      " Ð¸Ð·Ð²Ð»Ðµ",
      "Ñ"
    ],
    [
      " Ð¸Ð·Ð²Ð»ÐµÑ",
      "ÐµÐ½Ð¸Ñ"
    ],
    [
      " Ð¿ÑÐ¸",
      "Ð·Ð½Ð°"
    ],
    [
      " Ð¿ÑÐ¸Ð·Ð½Ð°",
      "Ðº"
    ],
    [
      " Ð¿ÑÐ¸Ð·Ð½Ð°Ðº",
      "Ð¾Ð²"
    ],
    [
      " Ð",
      "¢"
    ],
    [
      " Ð¢",
      "ÑÐ°Ð½"
    ],
    [
      " Ð¢ÑÐ°Ð½",
      "Ñ"
    ],
    [
      " Ð¢ÑÐ°Ð½Ñ",
      "Ñ"
    ],
    [
      " Ð¢ÑÐ°Ð½ÑÑ",
      "Ð¾ÑÐ¼"
    ],
    [
      " Ð¢ÑÐ°Ð½ÑÑÐ¾ÑÐ¼",
      "ÐµÑ"
    ],
    [
      " Ð¢ÑÐ°Ð½ÑÑÐ¾ÑÐ¼ÐµÑ",
      "Ñ"
    ],
    [
      " ÑÐµ",
      "Ð²Ð¾Ð»"
    ],
    [
      " ÑÐµÐ²Ð¾Ð»",
      "Ñ"
    ],
    [
      " ÑÐµÐ²Ð¾Ð»Ñ",
      "ÑÐ¸Ð¾Ð½"
    ],
    [
      " ÑÐµÐ²Ð¾Ð»ÑÑÐ¸Ð¾Ð½",
      "Ð¸"
    ],
    [
      " ÑÐµÐ²Ð¾Ð»ÑÑÐ¸Ð¾Ð½Ð¸",
      "Ð·Ð¸"
    ],
    [
      " ÑÐµÐ²Ð¾Ð»ÑÑÐ¸Ð¾Ð½Ð¸Ð·Ð¸",
      "ÑÐ¾Ð²"
    ],
    [
      " ÑÐµÐ²Ð¾Ð»ÑÑÐ¸Ð¾Ð½Ð¸Ð·Ð¸ÑÐ¾Ð²",
      "Ð°"
    ],
    [
      " ÑÐµÐ²Ð¾Ð»ÑÑÐ¸Ð¾Ð½Ð¸Ð·Ð¸ÑÐ¾Ð²Ð°",
      "Ð»Ð¸"
    ],
    [
      " Ð¾Ð±ÑÐ°Ð±Ð¾Ñ",
      "ÐºÑ"
    ],
    [
      " Ð±",
      "Ð»Ð°"
    ],
    [
      " Ð±Ð»Ð°",
      "Ð³"
    ],
    [
      " Ð±Ð»Ð°Ð³",
      "Ð¾Ð´"
    ],
    [
      " Ð±Ð»Ð°Ð³Ð¾Ð´",
      "Ð°Ñ"
    ],
    [
      " Ð±Ð»Ð°Ð³Ð¾Ð´Ð°Ñ",
      "Ñ"
    ],
    [
      " Ð¼ÐµÑÐ°Ð½Ð¸",
      "Ð·"
    ],
    [
      " Ð¼ÐµÑÐ°Ð½Ð¸Ð·",
      "Ð¼"
    ],
    [
      " Ð¼ÐµÑÐ°Ð½Ð¸Ð·Ð¼",
      "Ñ"
    ],
    [
      " Ð²",
      "Ð½Ð¸Ð¼"
    ],
    [
      " Ð²Ð½Ð¸Ð¼",
      "Ð°Ð½Ð¸Ñ"
    ],
    [
      "Ð",
      "ÑÐ°"
    ],
    [
      "ÐÑÐ°",
      "Ð²Ð¸"
    ],
    [
      "ÐÑÐ°Ð²Ð¸",
      "ÑÐµÐ»Ñ"
    ],
    [
      "ÐÑÐ°Ð²Ð¸ÑÐµÐ»Ñ",
      "ÑÑÐ²Ð¾"
    ],
    [
      " Ð¾Ð´",
      "Ð¾Ð±"
    ],
    [
      " Ð¾Ð´Ð¾Ð±",
      "ÑÐ¸"
    ],
    [
      " Ð¾Ð´Ð¾Ð±ÑÐ¸",
      "Ð»Ð¾"
    ],
    [
      " Ð½Ð¾Ð²",
      "ÑÐ¹"
    ],
    [
      " Ð¿",
      "Ð°Ðº"
    ],
    [
      " Ð¿Ð°Ðº",
      "ÐµÑ"
    ],
    [
      " Ð¼",
      "ÐµÑ"
    ],
    [
      " Ð¿Ð¾Ð´Ð´ÐµÑÐ¶",
      "ÐºÐµ"
    ],
    [
      " Ð",
      "Ð¸Ð½"
    ],
    [
      " ÐÐ¸Ð½",
      "Ð¸ÑÑ"
    ],
    [
      " ÐÐ¸Ð½Ð¸ÑÑ",
      "Ñ"
    ],
    [
      " Ñ",
      "Ð¸Ð½"
    ],
    [
      " ÑÐ¸Ð½",
      "Ð°Ð½"
    ],
    [
      " ÑÐ¸Ð½Ð°Ð½",
      "Ñ"
    ],
    [
      " ÑÐ¸Ð½Ð°Ð½Ñ",
      "Ð¾Ð²"
    ],
    [
      " Ð·",
      "Ð°Ñ"
    ],
    [
      " Ð·Ð°Ñ",
      "Ð²Ð¸Ð»"
    ],
    [
      " Ð²Ñ",
      "Ð´Ðµ"
    ],
    [
      " Ð²ÑÐ´Ðµ",
      "Ð»ÐµÐ½"
    ],
    [
      " Ð²ÑÐ´ÐµÐ»ÐµÐ½",
      "Ð½ÑÐµ"
    ],
    [
      " Ñ",
      "ÑÐµÐ´"
    ],
    [
      " ÑÑÐµÐ´",
      "ÑÑÐ²Ð°"
    ],
    [
      " Ð±",
      "ÑÐ´"
    ],
    [
      " Ð±ÑÐ´",
      "ÑÑ"
    ],
    [
      " Ð½Ð°",
      "Ð¿ÑÐ°"
    ],
    [
      " Ð½Ð°Ð¿ÑÐ°",
      "Ð²"
    ],
    [
      " Ð½Ð°Ð¿ÑÐ°Ð²",
      "Ð»ÐµÐ½"
    ],
    [
      " Ð½Ð°Ð¿ÑÐ°Ð²Ð»ÐµÐ½",
      "Ñ"
    ],
    [
      " Ð¸Ð½Ñ",
      "ÑÐ°"
    ],
    [
      " Ð¸Ð½ÑÑÐ°",
      "ÑÑ"
    ],
    [
      " Ð¸Ð½ÑÑÐ°ÑÑ",
      "ÑÑÐºÑ"
    ],
    [
      " Ð¸Ð½ÑÑÐ°ÑÑÑÑÐºÑ",
      "ÑÑ"
    ],
    [
      " Ð¸Ð½ÑÑÐ°ÑÑÑÑÐºÑÑÑ",
      "Ñ"
    ],
    [
      " Ð¿Ð¾Ð´Ð´ÐµÑÐ¶",
      "ÐºÑ"
    ],
    [
      " Ð¼Ð°Ð»",
      "Ð¾Ð³Ð¾"
    ],
    [
      " Ð±Ð¸",
      "Ð·"
    ],
    [
      " Ð±Ð¸Ð·",
      "Ð½Ðµ"
    ],
    [
      " Ð±Ð¸Ð·Ð½Ðµ",
      "ÑÐ°"
    ],
    [
      "Ð",
      ""
    ],
    [
      "Ð",
      "Ð°"
    ],
    [
      " Ð¼Ðµ",
      "Ð¶Ð´"
    ],
    [
      " Ð¼ÐµÐ¶Ð´",
      "Ñ"
    ],
    [
      " Ð¼ÐµÐ¶Ð´Ñ",
      "Ð½Ð°"
    ],
    [
      " Ð¼ÐµÐ¶Ð´ÑÐ½Ð°",
      "Ñ"
    ],
    [
      " Ð¼ÐµÐ¶Ð´ÑÐ½Ð°Ñ",
      "Ð¾Ð´"
    ],
    [
      " Ð¼ÐµÐ¶Ð´ÑÐ½Ð°ÑÐ¾Ð´",
      "Ð½Ð¾Ð¹"
    ],
    [
      " ÐºÐ¾Ð½",
      "ÑÐµÑÐµÐ½"
    ],
    [
      " ÐºÐ¾Ð½ÑÐµÑÐµÐ½",
      "ÑÐ¸Ð¸"
    ],
    [
      " Ðº",
      "Ð»Ð¸"
    ],
    [
      " ÐºÐ»Ð¸",
      "Ð¼Ð°Ñ"
    ],
    [
      " ÐºÐ»Ð¸Ð¼Ð°Ñ",
      "Ñ"
    ],
    [
      " Ð¾Ð±",
      "Ñ"
    ],
    [
      " Ð¾Ð±Ñ",
      "Ñ"
    ],
    [
      " Ð¾Ð±ÑÑ",
      "Ð¶Ð´Ð°"
    ],
    [
      " Ð¾Ð±ÑÑÐ¶Ð´Ð°",
      "Ð»Ð¸ÑÑ"
    ],
    [
      " Ñ",
      "Ð½Ð¸"
    ],
    [
      " ÑÐ½Ð¸",
      "Ð¶"
    ],
    [
      " ÑÐ½Ð¸Ð¶",
      "ÐµÐ½Ð¸Ñ"
    ],
    [
      " Ð²Ñ",
      "Ð±"
    ],
    [
      " Ð²ÑÐ±",
      "ÑÐ¾Ñ"
    ],
    [
      " Ð²ÑÐ±ÑÐ¾Ñ",
      "Ð¾Ð²"
    ],
    [
      " Ñ",
      "Ð³"
    ],
    [
      " ÑÐ³",
      "Ð»ÐµÐº"
    ],
    [
      " ÑÐ³Ð»ÐµÐº",
      "Ð¸Ñ"
    ],
    [
      " ÑÐ³Ð»ÐµÐºÐ¸Ñ",
      "Ð»"
    ],
    [
      " ÑÐ³Ð»ÐµÐºÐ¸ÑÐ»",
      "Ð¾Ð³Ð¾"
    ],
    [
      " Ð³",
      "Ð°"
    ],
    [
      " Ð³Ð°",
      "Ð·Ð°"
    ],
    [
      " Ð",
      "ÑÐµÐ´ÑÑ"
    ],
    [
      " ÐÑÐµÐ´ÑÑ",
      "Ð°"
    ],
    [
      " ÐÑÐµÐ´ÑÑÐ°",
      "Ð²Ð¸"
    ],
    [
      " ÐÑÐµÐ´ÑÑÐ°Ð²Ð¸",
      "ÑÐµ"
    ],
    [
      " ÐÑÐµÐ´ÑÑÐ°Ð²Ð¸ÑÐµ",
      "Ð»Ð¸"
    ],
    [
      " ÑÑ",
      "ÑÐ°Ð½"
    ],
    [
      " Ð´",
      "Ð¾Ð³Ð¾Ð²Ð¾Ñ"
    ],
    [
      " Ð´Ð¾Ð³Ð¾Ð²Ð¾Ñ",
      "Ð¸"
    ],
    [
      " Ð´Ð¾Ð³Ð¾Ð²Ð¾ÑÐ¸",
      "Ð»Ð¸ÑÑ"
    ],
    [
      " Ð½Ð¾Ð²",
      "ÑÑ"
    ],
    [
      " ",
      "Ñ"
    ],
    [
      " Ñ",
      "Ðµ"
    ],
    [
      " ÑÐµ",
      "Ð»Ñ"
    ],
    [
      " ÑÐµÐ»Ñ",
      "Ñ"
    ],
    [
      " Ð´",
      "ÐµÐº"
    ],
    [
      " Ð´ÐµÐº",
      "Ð°Ñ"
    ],
    [
      " Ð´ÐµÐºÐ°Ñ",
      "Ð±"
    ],
    [
      " Ð´ÐµÐºÐ°ÑÐ±",
      "Ð¾Ð½"
    ],
    [
      " Ð´ÐµÐºÐ°ÑÐ±Ð¾Ð½",
      "Ð¸"
    ],
    [
      " Ð´ÐµÐºÐ°ÑÐ±Ð¾Ð½Ð¸",
      "Ð·Ð°"
    ],
    [
      " Ð´ÐµÐºÐ°ÑÐ±Ð¾Ð½Ð¸Ð·Ð°",
      "ÑÐ¸Ð¸"
    ],
    [
      "Ð",
      "Ð»Ñ"
    ],
    [
      " Ñ",
      "ÑÑ"
    ],
    [
      " ÑÑÑ",
      "Ð°Ð½Ð¾Ð²"
    ],
    [
      " ÑÑÑÐ°Ð½Ð¾Ð²",
      "ÐºÐ¸"
    ],
    [
      " Ð¸ÑÐ¿Ð¾Ð»ÑÐ·Ñ",
      "Ð¹ÑÐµ"
    ],
    [
      " ÐºÐ¾Ð¼",
      "Ð°Ð½"
    ],
    [
      " ÐºÐ¾Ð¼Ð°Ð½",
      "Ð´Ñ"
    ],
    [
      " ",
      "p"
    ],
    [
      " p",
      "i"
    ],
    [
      " pi",
      "p"
    ],
    [
      " i",
      "n"
    ],
    [
      " in",
      "st"
    ],
    [
      " inst",
      "a"
    ],
    [
      " insta",
      "l"
    ],
    [
      " instal",
      "l"
    ],
    [
      " Ð",
      ""
    ],
    [
      " Ð",
      "Ð¼"
    ],
    [
      " ÐÐ¼",
      "Ð¿"
    ],
    [
      " ÐÐ¼Ð¿",
      "Ð¾Ñ"
    ],
    [
      " ÐÐ¼Ð¿Ð¾Ñ",
      "ÑÐ¸"
    ],
    [
      " ÐÐ¼Ð¿Ð¾ÑÑÐ¸",
      "ÑÑ"
    ],
    [
      " ÐÐ¼Ð¿Ð¾ÑÑÐ¸ÑÑ",
      "Ð¹ÑÐµ"
    ],
    [
      " Ð¼Ð¾Ð´",
      "ÑÐ»Ñ"
    ],
    [
      " i",
      "mp"
    ],
    [
      " imp",
      "o"
    ],
    [
      " impo",
      "r"
    ],
    [
      " impor",
      "t"
    ],
    [
      " ",
      "a"
    ],
    [
      " a",
      "s"
    ],
    [
      " Ð¡",
      "Ð¾Ð·"
    ],
    [
      " Ð¡Ð¾Ð·",
      "Ð´"
    ],
    [
      " Ð¡Ð¾Ð·Ð´",
      "Ð°Ð½Ð¸Ðµ"
    ],
    [
      " Ð¼Ð°",
      "ÑÑÐ¸"
    ],
    [
      " Ð¼Ð°ÑÑÐ¸",
      "Ð²"
    ],
    [
      " Ð¼Ð°ÑÑÐ¸Ð²",
      "Ð¾Ð²"
    ],
    [
      " ÑÑÐ½Ðº",
      "ÑÐ¸"
    ],
    [
      " ÑÑÐ½ÐºÑÐ¸",
      "ÐµÐ¹"
    ],
    [
      ".",
      "a"
    ],
    [
      ".a",
      "r"
    ],
    [
      ".ar",
      "r"
    ],
    [
      ".arr",
      "a"
    ],
    [
      ".arra",
      "y"
    ],
    [
      "H",
      "T"
    ],
    [
      "HT",
      "T"
    ],
    [
      "HTT",
      "P"
    ],
    [
      "-",
      "Ð·Ð°"
    ],
    [
      "-Ð·Ð°",
      "Ð¿"
    ],
    [
      "-Ð·Ð°Ð¿",
      "ÑÐ¾ÑÑ"
    ],
    [
      " Ð²Ñ",
      "Ð¿Ð¾Ð»"
    ],
    [
      " Ð²ÑÐ¿Ð¾Ð»",
      "Ð½Ñ"
    ],
    [
      " Ð²ÑÐ¿Ð¾Ð»Ð½Ñ",
      "ÑÑ"
    ],
    [
      " Ð²ÑÐ¿Ð¾Ð»Ð½ÑÑÑ",
      "ÑÑ"
    ],
    [
      " re",
      "q"
    ],
    [
      " req",
      "u"
    ],
    [
      " requ",
      "e"
    ],
    [
      " reque",
      "st"
    ],
    [
      " request",
      "s"
    ],
    [
      " Ð",
      "ÐµÑÐ¾Ð´"
    ],
    [
      " ",
      "G"
    ],
    [
      " G",
      "E"
    ],
    [
      " GE",
      "T"
    ],
    [
      " Ð¸ÑÐ¿Ð¾Ð»ÑÐ·Ñ",
      "ÐµÑÑÑ"
    ],
    [
      " Ð¿Ð¾Ð»",
      "ÑÑ"
    ],
    [
      " Ð¿Ð¾Ð»ÑÑ",
      "ÐµÐ½Ð¸Ñ"
    ],
    [
      " P",
      "O"
    ],
    [
      " PO",
      "S"
    ],
    [
      " POS",
      "T"
    ],
    [
      " Ð¾ÑÐ¿ÑÐ°",
      "Ð²"
    ],
    [
      " Ð¾ÑÐ¿ÑÐ°Ð²",
      "ÐºÐ¸"
    ],
    [
      " ÑÐµÑ",
      "Ð²ÐµÑ"
    ],
    [
      " ÐÐ±",
      "ÑÐ°Ð±Ð¾Ñ"
    ],
    [
      " ÐÐ±ÑÐ°Ð±Ð¾Ñ",
      "ÐºÐ°"
    ],
    [
      " ",
      "J"
    ],
    [
      " J",
      "S"
    ],
    [
      " JS",
      "O"
    ],
    [
      " JSO",
      "N"
    ],
    [
      " Ð¼ÐµÑÐ¾Ð´",
      "Ð¾Ð¼"
    ],
    [
      " re",
      "s"
    ],
    [
      " res",
      "p"
    ],
    [
      " resp",
      "on"
    ],
    [
      " respon",
      "s"
    ],
    [
      " respons",
      "e"
    ],
    [
      ".",
      "j"
    ],
    [
      ".j",
      "s"
    ],
    [
      ".js",
      "on"
    ],
    [
      "ÐÑÐ¸",
      "Ð²ÐµÑ"
    ],
    [
      " Ð",
      "Ð°Ðº"
    ],
    [
      " Ð´",
      "Ðµ"
    ],
    [
      " Ð´Ðµ",
      "Ð»Ð°"
    ],
    [
      " Ð",
      "Ð°Ð²"
    ],
    [
      " ÐÐ°Ð²",
      "Ð½Ð¾"
    ],
    [
      " Ð²",
      "Ð¸"
    ],
    [
      " Ð²Ð¸",
      "Ð´Ðµ"
    ],
    [
      " Ð²Ð¸Ð´Ðµ",
      "Ð»Ð¸ÑÑ"
    ],
    [
      " Ð²",
      "ÑÑ"
    ],
    [
      " Ð²ÑÑ",
      "ÑÐµÑ"
    ],
    [
      " Ð²ÑÑÑÐµÑ",
      "Ð¸Ð¼"
    ],
    [
      " Ð²ÑÑÑÐµÑÐ¸Ð¼",
      "ÑÑ"
    ],
    [
      " ÑÑÐ±",
      "Ð±"
    ],
    [
      " ÑÑÐ±Ð±",
      "Ð¾Ñ"
    ],
    [
      " ÑÑÐ±Ð±Ð¾Ñ",
      "Ñ"
    ],
    [
      " Ð",
      "Ð¾Ð³"
    ],
    [
      " ÐÐ¾Ð³",
      "Ð¾Ð´Ð°"
    ],
    [
      " Ð¾Ð±",
      "Ðµ"
    ],
    [
      " Ð¾Ð±Ðµ",
      "Ñ"
    ],
    [
      " Ð¾Ð±ÐµÑ",
      "Ð°"
    ],
    [
      " Ð¾Ð±ÐµÑÐ°",
      "ÐµÑ"
    ],
    [
      " Ð±Ñ",
      "ÑÑ"
    ],
    [
      " Ñ",
      "Ð¾Ñ"
    ],
    [
      " ÑÐ¾Ñ",
      "Ð¾Ñ"
    ],
    [
      " ÑÐ¾ÑÐ¾Ñ",
      "ÐµÐ¹"
    ],
    [
      " ÐÐ¾Ð¶",
      "ÐµÐ¼"
    ],
    [
      " Ð¿",
      "Ð¾Ð³"
    ],
    [
      " Ð¿Ð¾Ð³",
      "ÑÐ»Ñ"
    ],
    [
      " Ð¿Ð¾Ð³ÑÐ»Ñ",
      "ÑÑ"
    ],
    [
      " Ð¿Ð°Ñ",
      "ÐºÐµ"
    ],
    [
      " Ð¿",
      "Ð¾ÑÐ¸"
    ],
    [
      " Ð¿Ð¾ÑÐ¸",
      "Ð´"
    ],
    [
      " Ð¿Ð¾ÑÐ¸Ð´",
      "ÐµÑ"
    ],
    [
      " Ð¿Ð¾ÑÐ¸Ð´ÐµÑ",
      "Ñ"
    ],
    [
      " ÐºÐ°",
      "Ñ"
    ],
    [
      " ÐºÐ°Ñ",
      "Ðµ"
    ],
    [
      "Ð¡",
      "Ð»"
    ],
    [
      "Ð¡Ð»",
      "Ñ"
    ],
    [
      "Ð¡Ð»Ñ",
      "Ñ"
    ],
    [
      "Ð¡Ð»ÑÑ",
      "Ð°"
    ],
    [
      "Ð¡Ð»ÑÑÐ°",
      "Ð¹"
    ],
    [
      " Ñ",
      "ÑÑ"
    ],
    [
      " Ð¿Ð¾Ð´",
      "Ñ"
    ],
    [
      " Ð¿Ð¾Ð´Ñ",
      "Ð¼"
    ],
    [
      " Ð¿Ð¾Ð´ÑÐ¼",
      "Ð°Ð»"
    ],
    [
      " Ð½Ð°",
      "Ñ"
    ],
    [
      " Ð½Ð°Ñ",
      "Ñ"
    ],
    [
      " Ð½Ð°ÑÑ",
      "Ñ"
    ],
    [
      " Ð½Ð°ÑÑÑ",
      "Ñ"
    ],
    [
      " Ð½Ð°",
      "ÑÐµ"
    ],
    [
      " Ð½Ð°ÑÐµ",
      "Ð³"
    ],
    [
      " Ð½Ð°ÑÐµÐ³",
      "Ð¾"
    ],
    [
      " Ð¿ÑÐ¾",
      "ÐµÐº"
    ],
    [
      " Ð¿ÑÐ¾ÐµÐº",
      "ÑÐ°"
    ],
    [
      " ÑÑ",
      "Ð¾"
    ],
    [
      " ÑÑÐ¾",
      "Ð¸Ñ"
    ],
    [
      " Ð¿ÐµÑÐµ",
      "Ñ"
    ],
    [
      " Ð¿ÐµÑÐµÑ",
      "Ð¼"
    ],
    [
      " Ð¿ÐµÑÐµÑÐ¼",
      "Ð¾Ñ"
    ],
    [
      " Ð¿ÐµÑÐµÑÐ¼Ð¾Ñ",
      "ÑÐµÑ"
    ],
    [
      " Ð¿ÐµÑÐµÑÐ¼Ð¾ÑÑÐµÑ",
      "Ñ"
    ],
    [
      " Ð¿Ð¾Ð´",
      "ÑÐ¾Ð´"
    ],
    [
      " Ð",
      "Ð½Ðµ"
    ],
    [
      " ÐºÐ°",
      "Ð¶"
    ],
    [
      " ÐºÐ°Ð¶",
      "ÐµÑÑÑ"
    ],
    [
      " Ð¼",
      "Ñ"
    ],
    [
      " Ð¼",
      "Ð¾Ð³"
    ],
    [
      " Ð¼Ð¾Ð³",
      "Ð»Ð¸"
    ],
    [
      " Ñ",
      "Ð´Ðµ"
    ],
    [
      " ÑÐ´Ðµ",
      "Ð»"
    ],
    [
      " ÑÐ´ÐµÐ»",
      "Ð°ÑÑ"
    ],
    [
      " Ð³",
      "Ð¾ÑÐ°"
    ],
    [
      " Ð³Ð¾ÑÐ°",
      "Ð·"
    ],
    [
      " Ð³Ð¾ÑÐ°Ð·",
      "Ð´Ð¾"
    ],
    [
      " Ñ",
      "Ñ"
    ],
    [
      " ÑÑ",
      "Ñ"
    ],
    [
      " ÑÑÑ",
      "ÐµÐº"
    ],
    [
      " ÑÑÑÐµÐº",
      "ÑÐ¸"
    ],
    [
      " ÑÑÑÐµÐºÑÐ¸",
      "Ð²"
    ],
    [
      " ÑÑÑÐµÐºÑÐ¸Ð²",
      "Ð½Ðµ"
    ],
    [
      " ÑÑÑÐµÐºÑÐ¸Ð²Ð½Ðµ",
      "Ðµ"
    ],
    [
      "Ð¡",
      "Ð¾Ð³"
    ],
    [
      "Ð¡Ð¾Ð³",
      "Ð»Ð°"
    ],
    [
      "Ð¡Ð¾Ð³Ð»Ð°",
      "ÑÐ½Ð¾"
    ],
    [
      " ÑÑ",
      "Ð°ÑÑ"
    ],
    [
      " ÑÑÐ°ÑÑ",
      "Ðµ"
    ],
    [
      "1",
      "5"
    ],
    [
      "15",
      "9"
    ],
    [
      " Ð",
      "£"
    ],
    [
      " Ð£",
      "Ð³"
    ],
    [
      " Ð£Ð³",
      "Ð¾Ð»Ð¾Ð²Ð½Ð¾Ð³Ð¾"
    ],
    [
      " Ðº",
      "Ð¾Ð´"
    ],
    [
      " ÐºÐ¾Ð´",
      "ÐµÐº"
    ],
    [
      " ÐºÐ¾Ð´ÐµÐº",
      "ÑÐ°"
    ],
    [
      " Ð ",
      "Ð¾ÑÑÐ¸Ð¹ÑÐº"
    ],
    [
      " Ð Ð¾ÑÑÐ¸Ð¹ÑÐº",
      "Ð¾Ð¹"
    ],
    [
      " Ð¤ÐµÐ´Ðµ",
      "ÑÐ°ÑÐ¸Ð¸"
    ],
    [
      " Ð¼",
      "Ð¾Ñ"
    ],
    [
      " Ð¼Ð¾Ñ",
      "ÐµÐ½"
    ],
    [
      " Ð¼Ð¾ÑÐµÐ½",
      "Ð½Ð¸"
    ],
    [
      " Ð¼Ð¾ÑÐµÐ½Ð½Ð¸",
      "ÑÐµ"
    ],
    [
      " Ð¼Ð¾ÑÐµÐ½Ð½Ð¸ÑÐµ",
      "ÑÑÐ²Ð¾"
    ],
    [
      " ÐµÑÑ",
      "Ñ"
    ],
    [
      " Ñ",
      "Ð¸"
    ],
    [
      " ÑÐ¸",
      "Ñ"
    ],
    [
      " ÑÐ¸Ñ",
      "ÐµÐ½Ð¸Ðµ"
    ],
    [
      " ÑÑÐ¶",
      "Ð¾Ð³Ð¾"
    ],
    [
      " Ð¿ÑÐ¸",
      "Ð¾Ð±"
    ],
    [
      " Ð¿ÑÐ¸Ð¾Ð±",
      "ÑÐµÑ"
    ],
    [
      " Ð¿ÑÐ¸Ð¾Ð±ÑÐµÑ",
      "ÐµÐ½Ð¸Ðµ"
    ],
    [
      " Ð¿",
      "ÑÐ°"
    ],
    [
      " Ð¿ÑÐ°",
      "Ð²Ð°"
    ],
    [
      " ÑÑÐ¶",
      "Ð¾Ðµ"
    ],
    [
      " Ð¸Ð¼ÑÑÐµÑÑÐ²",
      "Ð¾"
    ],
    [
      " Ð¿",
      "ÑÑ"
    ],
    [
      " Ð¿ÑÑ",
      "Ñ"
    ],
    [
      " Ð¿ÑÑÑ",
      "Ð¼"
    ],
    [
      " Ð¾Ð±",
      "Ð¼"
    ],
    [
      " Ð¾Ð±Ð¼",
      "Ð°Ð½"
    ],
    [
      " Ð¾Ð±Ð¼Ð°Ð½",
      "Ð°"
    ],
    [
      " Ð·",
      "Ð»Ð¾"
    ],
    [
      " Ð·Ð»Ð¾",
      "Ñ"
    ],
    [
      " Ð·Ð»Ð¾Ñ",
      "Ð¿"
    ],
    [
      " Ð·Ð»Ð¾ÑÐ¿",
      "Ð¾Ñ"
    ],
    [
      " Ð·Ð»Ð¾ÑÐ¿Ð¾Ñ",
      "ÑÐµ"
    ],
    [
      " Ð·Ð»Ð¾ÑÐ¿Ð¾ÑÑÐµ",
      "Ð±"
    ],
    [
      " Ð·Ð»Ð¾ÑÐ¿Ð¾ÑÑÐµÐ±",
      "Ð»ÐµÐ½Ð¸Ñ"
    ],
    [
      " Ð´",
      "Ð¾Ð²"
    ],
    [
      " Ð´Ð¾Ð²",
      "ÐµÑÐ¸"
    ],
    [
      " Ð´Ð¾Ð²ÐµÑÐ¸",
      "ÐµÐ¼"
    ],
    [
      "Ð",
      "Ð¾Ð³Ð¾Ð²Ð¾Ñ"
    ],
    [
      " Ð°Ñ",
      "ÐµÐ½"
    ],
    [
      " Ð°ÑÐµÐ½",
      "Ð´"
    ],
    [
      " Ð°ÑÐµÐ½Ð´",
      "Ñ"
    ],
    [
      " Ð½Ðµ",
      "Ð´"
    ],
    [
      " Ð½ÐµÐ´",
      "Ð²Ð¸Ð¶"
    ],
    [
      " Ð½ÐµÐ´Ð²Ð¸Ð¶",
      "Ð¸Ð¼"
    ],
    [
      " Ð½ÐµÐ´Ð²Ð¸Ð¶Ð¸Ð¼",
      "Ð¾Ð³Ð¾"
    ],
    [
      " Ð·Ð°ÐºÐ»ÑÑÑÐ½",
      "Ð½ÑÐ¹"
    ],
    [
      " Ñ",
      "ÑÐ¾Ðº"
    ],
    [
      " Ð³",
      "Ð¾Ð´Ð°"
    ],
    [
      " Ð¿Ð¾Ð´",
      "Ð»Ðµ"
    ],
    [
      " Ð¿Ð¾Ð´Ð»Ðµ",
      "Ð¶"
    ],
    [
      " Ð¿Ð¾Ð´Ð»ÐµÐ¶",
      "Ð¸Ñ"
    ],
    [
      " Ð³Ð¾ÑÑÐ´Ð°Ñ",
      "ÑÑÐ²ÐµÐ½"
    ],
    [
      " Ð³Ð¾ÑÑÐ´Ð°ÑÑÑÐ²ÐµÐ½",
      "Ð½Ð¾Ð¹"
    ],
    [
      " Ñ",
      "Ñ"
    ],
    [
      " ÑÑ",
      "Ð¸Ñ"
    ],
    [
      " ÑÑÐ¸Ñ",
      "Ð°ÐµÑÑÑ"
    ],
    [
      " Ð·Ð°ÐºÐ»ÑÑÑÐ½",
      "Ð½ÑÐ¼"
    ],
    [
      " Ð¼",
      "Ð¾Ð¼ÐµÐ½"
    ],
    [
      " Ð¼Ð¾Ð¼ÐµÐ½",
      "ÑÐ°"
    ],
    [
      " Ñ",
      "Ð°Ðº"
    ],
    [
      " ÑÐ°Ðº",
      "Ð¾Ð¹"
    ],
    [
      "Ð",
      "Ñ"
    ],
    [
      "ÐÑ",
      "ÑÐµÑÐ¸Ð°Ð»Ñ"
    ],
    [
      "ÐÑÑÐµÑÐ¸Ð°Ð»Ñ",
      "Ð½Ð°Ñ"
    ],
    [
      " Ð³",
      "Ð¸"
    ],
    [
      " Ð³Ð¸",
      "Ð¿"
    ],
    [
      " Ð³Ð¸Ð¿",
      "ÐµÑ"
    ],
    [
      " Ð³Ð¸Ð¿ÐµÑ",
      "Ñ"
    ],
    [
      " Ð³Ð¸Ð¿ÐµÑÑ",
      "ÐµÐ½"
    ],
    [
      " Ð³Ð¸Ð¿ÐµÑÑÐµÐ½",
      "Ð·Ð¸"
    ],
    [
      " Ð³Ð¸Ð¿ÐµÑÑÐµÐ½Ð·Ð¸",
      "Ñ"
    ],
    [
      " Ñ",
      "Ð²"
    ],
    [
      " ÑÐ²",
      "Ð»ÑÐµÑÑÑ"
    ],
    [
      " ÑÐ°ÐºÑÐ¾Ñ",
      "Ð¾Ð¼"
    ],
    [
      " ",
      "ÑÐ¸"
    ],
    [
      " ÑÐ¸",
      "ÑÐº"
    ],
    [
      " ÑÐ¸ÑÐº",
      "Ð°"
    ],
    [
      " ÑÐµÑ",
      "Ð´Ðµ"
    ],
    [
      " ÑÐµÑÐ´Ðµ",
      "ÑÐ½Ð¾"
    ],
    [
      "-Ñ",
      "Ð¾ÑÑÐ´"
    ],
    [
      "-ÑÐ¾ÑÑÐ´",
      "Ð¸ÑÑ"
    ],
    [
      "-ÑÐ¾ÑÑÐ´Ð¸ÑÑ",
      "ÑÑ"
    ],
    [
      " Ð·Ð°Ð±Ð¾Ð»ÐµÐ²",
      "Ð°Ð½Ð¸"
    ],
    [
      " Ð·Ð°Ð±Ð¾Ð»ÐµÐ²Ð°Ð½Ð¸",
      "Ð¹"
    ],
    [
      " Ð ",
      "ÐµÐº"
    ],
    [
      " Ð ÐµÐº",
      "Ð¾Ð¼ÐµÐ½"
    ],
    [
      " Ð ÐµÐºÐ¾Ð¼ÐµÐ½",
      "Ð´Ñ"
    ],
    [
      " Ð ÐµÐºÐ¾Ð¼ÐµÐ½Ð´Ñ",
      "ÐµÑÑÑ"
    ],
    [
      " ÑÐµÐ³",
      "ÑÐ»ÑÑ"
    ],
    [
      " ÑÐµÐ³ÑÐ»ÑÑ",
      "Ð½ÑÐ¹"
    ],
    [
      " ÐºÐ¾Ð½",
      "Ñ"
    ],
    [
      " ÐºÐ¾Ð½Ñ",
      "Ñ"
    ],
    [
      " ÐºÐ¾Ð½ÑÑ",
      "Ð¾Ð»Ñ"
    ],
    [
      " Ð°Ñ",
      "ÑÐµÑÐ¸Ð°Ð»Ñ"
    ],
    [
      " Ð°ÑÑÐµÑÐ¸Ð°Ð»Ñ",
      "Ð½Ð¾Ð³Ð¾"
    ],
    [
      " Ð´",
      "Ð°Ð²"
    ],
    [
      " Ð´Ð°Ð²",
      "Ð»ÐµÐ½Ð¸Ñ"
    ],
    [
      " ÑÐ¾Ð±",
      "Ð»Ñ"
    ],
    [
      " ÑÐ¾Ð±Ð»Ñ",
      "Ð´ÐµÐ½Ð¸Ðµ"
    ],
    [
      " Ð½Ð°",
      "Ð·Ð½Ð°"
    ],
    [
      " Ð½Ð°Ð·Ð½Ð°",
      "Ñ"
    ],
    [
      " Ð½Ð°Ð·Ð½Ð°Ñ",
      "ÐµÐ½"
    ],
    [
      " Ð½Ð°Ð·Ð½Ð°ÑÐµÐ½",
      "Ð½Ð¾Ð¹"
    ],
    [
      " ÑÐµ",
      "ÑÐ°"
    ],
    [
      " ÑÐµÑÐ°",
      "Ð¿"
    ],
    [
      " ÑÐµÑÐ°Ð¿",
      "Ð¸"
    ],
    [
      " ÑÐµÑÐ°Ð¿Ð¸",
      "Ð¸"
    ],
    [
      " Ð´Ð¸Ð°",
      "Ð³"
    ],
    [
      " Ð´Ð¸Ð°Ð³",
      "Ð½Ð¾ÑÑÐ¸"
    ],
    [
      " Ð´Ð¸Ð°Ð³Ð½Ð¾ÑÑÐ¸",
      "ÐºÐµ"
    ],
    [
      " Ð·Ð°Ð±Ð¾Ð»ÐµÐ²",
      "Ð°Ð½Ð¸Ñ"
    ],
    [
      " Ð¸ÑÐ¿Ð¾Ð»ÑÐ·ÑÑÑ",
      "ÑÑ"
    ],
    [
      " Ð»",
      "Ð°"
    ],
    [
      " Ð»Ð°",
      "Ð±"
    ],
    [
      " Ð»Ð°Ð±",
      "Ð¾ÑÐ°"
    ],
    [
      " Ð»Ð°Ð±Ð¾ÑÐ°",
      "ÑÐ¾Ñ"
    ],
    [
      " Ð»Ð°Ð±Ð¾ÑÐ°ÑÐ¾Ñ",
      "Ð½ÑÐµ"
    ],
    [
      " Ð¸Ñ",
      "Ñ"
    ],
    [
      " Ð¸ÑÑ",
      "Ð»Ðµ"
    ],
    [
      " Ð¸ÑÑÐ»Ðµ",
      "Ð´"
    ],
    [
      " Ð¸ÑÑÐ»ÐµÐ´",
      "Ð¾Ð²"
    ],
    [
      " Ð¸ÑÑÐ»ÐµÐ´Ð¾Ð²",
      "Ð°Ð½Ð¸Ñ"
    ],
    [
      " Ð¾Ð±Ñ",
      "Ð¸Ð¹"
    ],
    [
      " Ðº",
      "ÑÐ¾Ð²"
    ],
    [
      " ÐºÑÐ¾Ð²",
      "Ð¸"
    ],
    [
      " Ð±Ð¸",
      "Ð¾"
    ],
    [
      " Ð±Ð¸Ð¾",
      "Ñ"
    ],
    [
      " Ð±Ð¸Ð¾Ñ",
      "Ð¸Ð¼"
    ],
    [
      " Ð±Ð¸Ð¾ÑÐ¸Ð¼",
      "Ð¸ÑÐµÑÐºÐ¸Ð¹"
    ],
    [
      " Ð¸Ð¼",
      "Ð¼"
    ],
    [
      " Ð¸Ð¼Ð¼",
      "ÑÐ½"
    ],
    [
      " Ð¸Ð¼Ð¼ÑÐ½",
      "Ð¾Ð»Ð¾Ð³Ð¸ÑÐµÑÐº"
    ],
    [
      " Ð¸Ð¼Ð¼ÑÐ½Ð¾Ð»Ð¾Ð³Ð¸ÑÐµÑÐº",
      "Ð¸Ðµ"
    ],
    [
      " ÑÐµ",
      "ÑÑÑ"
    ],
    [
      "Ð",
      " "
    ],
    [
      "Ð ",
      "Ð¾ÑÑÐ¸Ð¹ÑÐº"
    ],
    [
      "Ð Ð¾ÑÑÐ¸Ð¹ÑÐº",
      "Ð°Ñ"
    ],
    [
      " Ð¤ÐµÐ´Ðµ",
      "ÑÐ°"
    ],
    [
      " Ð¤ÐµÐ´ÐµÑÐ°",
      "ÑÐ¸"
    ],
    [
      " Ð¤ÐµÐ´ÐµÑÐ°ÑÐ¸",
      "Ñ"
    ],
    [
      " Ð³Ð¾ÑÑÐ´Ð°Ñ",
      "ÑÑÐ²Ð¾"
    ],
    [
      " Ð",
      ""
    ],
    [
      " Ð",
      "Ð¾ÑÑ"
    ],
    [
      " ÐÐ¾ÑÑ",
      "Ð¾Ñ"
    ],
    [
      " ÐÐ¾ÑÑÐ¾Ñ",
      "Ð½Ð¾Ð¹"
    ],
    [
      " Ð",
      "Ð²"
    ],
    [
      " ÐÐ²",
      "Ñ"
    ],
    [
      " ÐÐ²Ñ",
      "Ð¾Ð¿"
    ],
    [
      " ÐÐ²ÑÐ¾Ð¿",
      "Ðµ"
    ],
    [
      " Ð¡",
      "Ðµ"
    ],
    [
      " Ð¡Ðµ",
      "Ð²ÐµÑ"
    ],
    [
      " Ð¡ÐµÐ²ÐµÑ",
      "Ð½Ð¾Ð¹"
    ],
    [
      " Ð",
      ""
    ],
    [
      " Ð",
      "Ð·Ð¸"
    ],
    [
      " ÐÐ·Ð¸",
      "Ð¸"
    ],
    [
      " Ð¡",
      "Ñ"
    ],
    [
      " Ð¡Ñ",
      "Ð¾Ð»Ð¸"
    ],
    [
      " Ð¡ÑÐ¾Ð»Ð¸",
      "Ñ"
    ],
    [
      " Ð¡ÑÐ¾Ð»Ð¸Ñ",
      "Ð°"
    ],
    [
      " ÐÐ¾ÑÐº",
      "Ð²Ð°"
    ],
    [
      " Ð",
      "ÑÑ"
    ],
    [
      " ÐÑÑ",
      "Ð¿"
    ],
    [
      " ÐÑÑÐ¿",
      "Ð½"
    ],
    [
      " ÐÑÑÐ¿Ð½",
      "ÐµÐ¹"
    ],
    [
      " ÐÑÑÐ¿Ð½ÐµÐ¹",
      "Ñ"
    ],
    [
      " ÐÑÑÐ¿Ð½ÐµÐ¹Ñ",
      "Ð¸Ðµ"
    ],
    [
      " Ð³Ð¾Ñ",
      "Ð¾Ð´Ð°"
    ],
    [
      " Ð¡",
      "Ð°Ð½"
    ],
    [
      " Ð¡Ð°Ð½",
      "ÐºÑ"
    ],
    [
      "-",
      "ÐÐµÑÐµÑÐ±ÑÑÐ³"
    ],
    [
      " ÐÐ¾Ð²",
      "Ð¾ÑÐ¸"
    ],
    [
      " ÐÐ¾Ð²Ð¾ÑÐ¸",
      "Ð±"
    ],
    [
      " ÐÐ¾Ð²Ð¾ÑÐ¸Ð±",
      "Ð¸"
    ],
    [
      " ÐÐ¾Ð²Ð¾ÑÐ¸Ð±Ð¸",
      "Ñ"
    ],
    [
      " ÐÐ¾Ð²Ð¾ÑÐ¸Ð±Ð¸Ñ",
      "ÑÐº"
    ],
    [
      " Ð",
      "Ðº"
    ],
    [
      " ÐÐº",
      "Ð°Ñ"
    ],
    [
      " ÐÐºÐ°Ñ",
      "ÐµÑ"
    ],
    [
      " ÐÐºÐ°ÑÐµÑ",
      "Ð¸Ð½"
    ],
    [
      " ÐÐºÐ°ÑÐµÑÐ¸Ð½",
      "Ð±ÑÑÐ³"
    ],
    [
      " Ð",
      "Ð°Ð·"
    ],
    [
      " ÐÐ°Ð·",
      "Ð°Ð½"
    ],
    [
      " ÐÐ°Ð·Ð°Ð½",
      "Ñ"
    ],
    [
      " Ð",
      "Ð¸"
    ],
    [
      " ÐÐ¸",
      "Ð¶"
    ],
    [
      " ÐÐ¸Ð¶",
      "Ð½"
    ],
    [
      " ÐÐ¸Ð¶Ð½",
      "Ð¸Ð¹"
    ],
    [
      " ÐÐ¾Ð²",
      "Ð³Ð¾Ñ"
    ],
    [
      " ÐÐ¾Ð²Ð³Ð¾Ñ",
      "Ð¾Ð´"
    ],
    [
      "ÐÐµÑÐµÑÐ±ÑÑÐ³",
      "ÑÐº"
    ],
    [
      "ÐÐµÑÐµÑÐ±ÑÑÐ³ÑÐº",
      "Ð¾Ðµ"
    ],
    [
      " Ð»ÐµÑ",
      "Ð¾"
    ],
    [
      " Ð±ÑÐ»",
      "Ð¾"
    ],
    [
      " ÑÐ°Ð·",
      "Ð³Ð°"
    ],
    [
      " ÑÐ°Ð·Ð³Ð°",
      "ÑÐµ"
    ],
    [
      " Ð",
      ""
    ],
    [
      " Ð",
      "Ðµ"
    ],
    [
      " ÐÐµ",
      "Ð»Ñ"
    ],
    [
      " ÐÐµÐ»Ñ",
      "Ðµ"
    ],
    [
      " Ð½",
      "Ð¾Ñ"
    ],
    [
      " Ð½Ð¾Ñ",
      "Ð¸"
    ],
    [
      " Ð¾",
      "ÐºÑ"
    ],
    [
      " Ð¾ÐºÑ",
      "Ñ"
    ],
    [
      " Ð¾ÐºÑÑ",
      "ÑÐ²Ð°"
    ],
    [
      " Ð¾ÐºÑÑÑÐ²Ð°",
      "Ð»Ð¸"
    ],
    [
      " Ð³Ð¾Ñ",
      "Ð¾Ð´"
    ],
    [
      " ÑÐ²Ð¾",
      "Ð¸Ð¼"
    ],
    [
      " Ð¿ÑÐ¸",
      "Ð·"
    ],
    [
      " Ð¿ÑÐ¸Ð·",
      "ÑÐ°"
    ],
    [
      " Ð¿ÑÐ¸Ð·ÑÐ°",
      "Ñ"
    ],
    [
      " Ð¿ÑÐ¸Ð·ÑÐ°Ñ",
      "Ð½ÑÐ¼"
    ],
    [
      " ÑÐ²",
      "ÐµÑ"
    ],
    [
      " ÑÐ²ÐµÑ",
      "Ð¾Ð¼"
    ],
    [
      " Ð ",
      "Ð°"
    ],
    [
      " Ð Ð°",
      "Ð·Ð²Ð¾Ð´Ð½ÑÐµ"
    ],
    [
      " Ð¼Ð¾ÑÑ",
      "Ñ"
    ],
    [
      " Ð¿Ð¾Ð´",
      "Ð½Ð¸Ð¼"
    ],
    [
      " Ð¿Ð¾Ð´Ð½Ð¸Ð¼",
      "Ð°"
    ],
    [
      " Ð¿Ð¾Ð´Ð½Ð¸Ð¼Ð°",
      "Ð»Ð¸ÑÑ"
    ],
    [
      " Ð¿Ñ",
      "Ð¾Ð¿"
    ],
    [
      " Ð¿ÑÐ¾Ð¿",
      "Ñ"
    ],
    [
      " Ð¿ÑÐ¾Ð¿Ñ",
      "ÑÐº"
    ],
    [
      " Ð¿ÑÐ¾Ð¿ÑÑÐº",
      "Ð°Ñ"
    ],
    [
      " Ðº",
      "Ð¾"
    ],
    [
      " ÐºÐ¾",
      "ÑÐ°Ð±"
    ],
    [
      " ÐºÐ¾ÑÐ°Ð±",
      "Ð»Ð¸"
    ],
    [
      " Ð",
      "Ðµ"
    ],
    [
      " ÐÐµ",
      "Ð²Ðµ"
    ],
    [
      "Ð",
      "Ñ"
    ],
    [
      "ÐÑ",
      "Ð¾Ð³"
    ],
    [
      "ÐÑÐ¾Ð³",
      "ÑÐ°"
    ],
    [
      "ÐÑÐ¾Ð³ÑÐ°",
      "Ð¼"
    ],
    [
      "ÐÑÐ¾Ð³ÑÐ°Ð¼",
      "Ð¼Ð¸"
    ],
    [
      "ÐÑÐ¾Ð³ÑÐ°Ð¼Ð¼Ð¸",
      "ÑÐ¾Ð²"
    ],
    [
      "ÐÑÐ¾Ð³ÑÐ°Ð¼Ð¼Ð¸ÑÐ¾Ð²",
      "Ð°Ð½Ð¸Ðµ"
    ],
    [
      " P",
      "y"
    ],
    [
      " Py",
      "t"
    ],
    [
      " Pyt",
      "h"
    ],
    [
      " Pyth",
      "on"
    ],
    [
      " ÑÑ",
      "Ð°Ð½Ð¾Ð²"
    ],
    [
      " ÑÑÐ°Ð½Ð¾Ð²",
      "Ð¸Ñ"
    ],
    [
      " ÑÑÐ°Ð½Ð¾Ð²Ð¸Ñ",
      "ÑÑ"
    ],
    [
      " Ð¿",
      "Ð¾Ð¿"
    ],
    [
      " Ð¿Ð¾Ð¿",
      "ÑÐ»ÑÑ"
    ],
    [
      " Ð¿Ð¾Ð¿ÑÐ»ÑÑ",
      "Ð½ÑÐ¼"
    ],
    [
      " Ð",
      "¯"
    ],
    [
      " Ð¯",
      "Ð·Ñ"
    ],
    [
      " Ð¯Ð·Ñ",
      "Ðº"
    ],
    [
      " Ð¾Ñ",
      "Ð»Ð¸"
    ],
    [
      " Ð¾ÑÐ»Ð¸",
      "ÑÐ°"
    ],
    [
      " Ð¾ÑÐ»Ð¸ÑÐ°",
      "ÐµÑÑÑ"
    ],
    [
      " Ð¿Ñ",
      "Ð¾ÑÑ"
    ],
    [
      " Ð¿ÑÐ¾ÑÑ",
      "Ñ"
    ],
    [
      " Ð¿ÑÐ¾ÑÑÑ",
      "Ð¼"
    ],
    [
      " Ñ",
      "Ð¸Ð½"
    ],
    [
      " ÑÐ¸Ð½",
      "Ñ"
    ],
    [
      " ÑÐ¸Ð½Ñ",
      "Ð°Ðº"
    ],
    [
      " ÑÐ¸Ð½ÑÐ°Ðº",
      "Ñ"
    ],
    [
      " ÑÐ¸Ð½ÑÐ°ÐºÑ",
      "Ð¸Ñ"
    ],
    [
      " ÑÐ¸Ð½ÑÐ°ÐºÑÐ¸Ñ",
      "Ð¾Ð¼"
    ],
    [
      " Ð±",
      "Ð¾Ð»Ñ"
    ],
    [
      " Ð±Ð¾Ð»Ñ",
      "ÑÐ¸Ð¼"
    ],
    [
      " Ðº",
      "Ð¾Ð»Ð¸"
    ],
    [
      " ÐºÐ¾Ð»Ð¸",
      "ÑÐµ"
    ],
    [
      " ÐºÐ¾Ð»Ð¸ÑÐµ",
      "ÑÑÐ²"
    ],
    [
      " ÐºÐ¾Ð»Ð¸ÑÐµÑÑÐ²",
      "Ð¾Ð¼"
    ],
    [
      " Ð±Ð¸Ð±Ð»Ð¸Ð¾ÑÐµ",
      "Ðº"
    ],
    [
      " Ð°Ð½Ð°Ð»Ð¸",
      "Ð·Ð°"
    ],
    [
      " Ð¼Ð°",
      "ÑÐ¸Ð½"
    ],
    [
      " Ð¼Ð°ÑÐ¸Ð½",
      "Ð½Ð¾Ð³Ð¾"
    ],
    [
      " Ð²Ðµ",
      "Ð±"
    ],
    [
      "-",
      "ÑÐ°"
    ],
    [
      "-ÑÐ°",
      "Ð·"
    ],
    [
      "-ÑÐ°Ð·",
      "ÑÐ°Ð±Ð¾Ñ"
    ],
    [
      "-ÑÐ°Ð·ÑÐ°Ð±Ð¾Ñ",
      "ÐºÐ¸"
    ],
    [
      "Ð¡",
      "Ð¾Ð²ÑÐµÐ¼ÐµÐ½"
    ],
    [
      "Ð¡Ð¾Ð²ÑÐµÐ¼ÐµÐ½",
      "Ð½ÑÐµ"
    ],
    [
      " Ð¾Ð±ÑÐ°Ð±Ð¾Ñ",
      "ÐºÐ¸"
    ],
    [
      " Ð¿",
      "Ð¾Ð·"
    ],
    [
      " Ð¿Ð¾Ð·",
      "Ð²Ð¾Ð»"
    ],
    [
      " Ð¿Ð¾Ð·Ð²Ð¾Ð»",
      "Ñ"
    ],
    [
      " Ð¿Ð¾Ð·Ð²Ð¾Ð»Ñ",
      "ÑÑ"
    ],
    [
      " Ð°Ð½Ð°Ð»Ð¸",
      "Ð·Ð¸"
    ],
    [
      " Ð°Ð½Ð°Ð»Ð¸Ð·Ð¸",
      "ÑÐ¾Ð²Ð°ÑÑ"
    ],
    [
      " ÑÐµ",
      "Ðº"
    ],
    [
      " ÑÐµÐº",
      "ÑÑÑ"
    ],
    [
      " ÑÐ·ÑÐºÐ°",
      "Ñ"
    ],
    [
      " Ð¸Ð·Ð²",
      "Ð»ÐµÐº"
    ],
    [
      " Ð¸Ð·Ð²Ð»ÐµÐº",
      "Ð°ÑÑ"
    ],
    [
      " Ð¸Ð½Ñ",
      "Ð¾ÑÐ¼Ð°"
    ],
    [
      " Ð¸Ð½ÑÐ¾ÑÐ¼Ð°",
      "ÑÐ¸"
    ],
    [
      " Ð¸Ð½ÑÐ¾ÑÐ¼Ð°ÑÐ¸",
      "Ñ"
    ],
    [
      " Ðº",
      "Ð»Ð°"
    ],
    [
      " ÐºÐ»Ð°",
      "ÑÑÐ¸"
    ],
    [
      " ÐºÐ»Ð°ÑÑÐ¸",
      "Ñ"
    ],
    [
      " ÐºÐ»Ð°ÑÑÐ¸Ñ",
      "Ð¸"
    ],
    [
      " ÐºÐ»Ð°ÑÑÐ¸ÑÐ¸",
      "ÑÐ¸"
    ],
    [
      " ÐºÐ»Ð°ÑÑÐ¸ÑÐ¸ÑÐ¸",
      "ÑÐ¾Ð²Ð°ÑÑ"
    ],
    [
      " Ð´",
      "Ð¾Ðº"
    ],
    [
      " Ð´Ð¾Ðº",
      "Ñ"
    ],
    [
      " Ð´Ð¾ÐºÑ",
      "Ð¼ÐµÐ½"
    ],
    [
      " Ð´Ð¾ÐºÑÐ¼ÐµÐ½",
      "Ñ"
    ],
    [
      " Ð´Ð¾ÐºÑÐ¼ÐµÐ½Ñ",
      "Ñ"
    ],
    [
      " Ð³",
      "ÐµÐ½"
    ],
    [
      " Ð³ÐµÐ½",
      "ÐµÑÐ¸"
    ],
    [
      " Ð³ÐµÐ½ÐµÑÐ¸",
      "ÑÐ¾Ð²Ð°ÑÑ"
    ],
    [
      " Ð¾Ñ",
      "Ð²ÐµÑ"
    ],
    [
      " Ð¾ÑÐ²ÐµÑ",
      "Ñ"
    ],
    [
      "ÐÐ°",
      "ÑÐµ"
    ],
    [
      "ÐÐ°ÑÐµ",
      "Ð¼Ð°Ñ"
    ],
    [
      "ÐÐ°ÑÐµÐ¼Ð°Ñ",
      "Ð¸ÑÐµÑÐºÐ¸Ð¹"
    ],
    [
      " Ð¸Ð·ÑÑÐ°",
      "ÐµÑ"
    ],
    [
      " ÑÑÐ½Ðº",
      "ÑÐ¸Ð¸"
    ],
    [
      " Ð¿",
      "ÑÐµÐ´Ðµ"
    ],
    [
      " Ð¿ÑÐµÐ´Ðµ",
      "Ð»Ñ"
    ],
    [
      " Ð¿ÑÐ¾Ð¸",
      "Ð·Ð²Ð¾Ð´Ð½ÑÐµ"
    ],
    [
      " Ð¸Ð½ÑÐµ",
      "Ð³"
    ],
    [
      " Ð¸Ð½ÑÐµÐ³",
      "ÑÐ°"
    ],
    [
      " Ð¸Ð½ÑÐµÐ³ÑÐ°",
      "Ð»Ñ"
    ],
    [
      " Ð",
      "Ð¸"
    ],
    [
      " ÐÐ¸",
      "Ñ"
    ],
    [
      " ÐÐ¸Ñ",
      "ÑÐµÑÐµÐ½"
    ],
    [
      " ÐÐ¸ÑÑÐµÑÐµÐ½",
      "ÑÐ¸"
    ],
    [
      " ÐÐ¸ÑÑÐµÑÐµÐ½ÑÐ¸",
      "Ð°Ð»Ñ"
    ],
    [
      " ÐÐ¸ÑÑÐµÑÐµÐ½ÑÐ¸Ð°Ð»Ñ",
      "Ð½Ð¾Ðµ"
    ],
    [
      " Ð¸Ñ",
      "ÑÐ¸Ñ"
    ],
    [
      " Ð¸ÑÑÐ¸Ñ",
      "Ð»"
    ],
    [
      " Ð¸ÑÑÐ¸ÑÐ»",
      "ÐµÐ½Ð¸Ðµ"
    ],
    [
      " Ð·",
      "Ð°Ð½Ð¸Ð¼"
    ],
    [
      " Ð·Ð°Ð½Ð¸Ð¼",
      "Ð°ÐµÑÑÑ"
    ],
    [
      " Ð¸Ð·",
      "ÑÑ"
    ],
    [
      " Ð¸Ð·ÑÑ",
      "ÐµÐ½Ð¸Ðµ"
    ],
    [
      " Ð¸Ð·ÑÑÐµÐ½Ð¸Ðµ",
      "Ð¼"
    ],
    [
      " Ñ",
      "Ðº"
    ],
    [
      " ÑÐº",
      "Ð¾Ñ"
    ],
    [
      " ÑÐºÐ¾Ñ",
      "Ð¾ÑÑÐ¸"
    ],
    [
      " Ð¸Ð·",
      "Ð¼ÐµÐ½"
    ],
    [
      " Ð¸Ð·Ð¼ÐµÐ½",
      "ÐµÐ½Ð¸Ñ"
    ],
    [
      " Ð²Ðµ",
      "Ð»Ð¸Ñ"
    ],
    [
      " Ð²ÐµÐ»Ð¸Ñ",
      "Ð¸Ð½"
    ],
    [
      "Ð",
      ""
    ],
    [
      "Ð",
      "ÑÐºÑÑÑÑÐ²ÐµÐ½"
    ],
    [
      "ÐÑÐºÑÑÑÑÐ²ÐµÐ½",
      "Ð½ÑÐ¹"
    ],
    [
      " Ð¸Ð½ÑÐµÐ»Ð»ÐµÐº",
      "Ñ"
    ],
    [
      " Ð½Ð°",
      "ÑÐ¾Ð´"
    ],
    [
      " Ð½Ð°ÑÐ¾Ð´",
      "Ð¸Ñ"
    ],
    [
      " Ð¿Ñ",
      "Ð¸Ð¼"
    ],
    [
      " Ð¿ÑÐ¸Ð¼",
      "ÐµÐ½"
    ],
    [
      " Ð¿ÑÐ¸Ð¼ÐµÐ½",
      "ÐµÐ½Ð¸Ðµ"
    ],
    [
      " Ð¾Ð±Ð»Ð°ÑÑ",
      "Ñ"
    ],
    [
      " Ð¾Ð±Ð»Ð°ÑÑÑ",
      "Ñ"
    ],
    [
      " ÑÐ°Ñ",
      "Ð¿"
    ],
    [
      " ÑÐ°ÑÐ¿",
      "Ð¾Ð·"
    ],
    [
      " ÑÐ°ÑÐ¿Ð¾Ð·",
      "Ð½Ð°"
    ],
    [
      " ÑÐ°ÑÐ¿Ð¾Ð·Ð½Ð°",
      "Ð²"
    ],
    [
      " ÑÐ°ÑÐ¿Ð¾Ð·Ð½Ð°Ð²",
      "Ð°Ð½Ð¸Ñ"
    ],
    [
      " Ð¸Ð·",
      "Ð¾Ð±"
    ],
    [
      " Ð¸Ð·Ð¾Ð±",
      "ÑÐ°"
    ],
    [
      " Ð¸Ð·Ð¾Ð±ÑÐ°",
      "Ð¶"
    ],
    [
      " Ð¸Ð·Ð¾Ð±ÑÐ°Ð¶",
      "ÐµÐ½Ð¸"
    ],
    [
      " Ð¸Ð·Ð¾Ð±ÑÐ°Ð¶ÐµÐ½Ð¸",
      "Ð¹"
    ],
    [
      " Ð´",
      "Ð¾"
    ],
    [
      " Ð°Ð²",
      "Ñ"
    ],
    [
      " Ð°Ð²Ñ",
      "Ð¾Ð½Ð¾Ð¼"
    ],
    [
      " Ð°Ð²ÑÐ¾Ð½Ð¾Ð¼",
      "Ð½Ð¾Ð³Ð¾"
    ],
    [
      " Ð²",
      "Ð¾Ð¶"
    ],
    [
      " Ð²Ð¾Ð¶",
      "Ð´"
    ],
    [
      " Ð²Ð¾Ð¶Ð´",
      "ÐµÐ½Ð¸Ñ"
    ],
    [
      " Ð°Ð²",
      "ÑÐ¾Ð¼"
    ],
    [
      " Ð°Ð²ÑÐ¾Ð¼",
      "Ð¾Ð±"
    ],
    [
      " Ð°Ð²ÑÐ¾Ð¼Ð¾Ð±",
      "Ð¸"
    ],
    [
      " Ð°Ð²ÑÐ¾Ð¼Ð¾Ð±Ð¸",
      "Ð»ÐµÐ¹"
    ],
    [
      "Ð",
      "­"
    ],
    [
      "Ð­",
      "ÐºÐ¾Ð½Ð¾Ð¼"
    ],
    [
      "Ð­ÐºÐ¾Ð½Ð¾Ð¼",
      "Ð¸ÑÐµÑÐºÐ¸Ð¹"
    ],
    [
      " ÑÑ",
      "ÑÐ°"
    ],
    [
      " ÑÑÑÐ°",
      "Ð½Ñ"
    ],
    [
      " Ð·Ð°",
      "Ð²Ð¸"
    ],
    [
      " Ð·Ð°Ð²Ð¸",
      "Ñ"
    ],
    [
      " Ð·Ð°Ð²Ð¸Ñ",
      "Ð¸Ñ"
    ],
    [
      " Ð¼",
      "Ð½"
    ],
    [
      " Ð¼Ð½",
      "Ð¾Ð¶"
    ],
    [
      " Ð¼Ð½Ð¾Ð¶",
      "ÐµÑÑÐ²"
    ],
    [
      " Ð¼Ð½Ð¾Ð¶ÐµÑÑÐ²",
      "Ð°"
    ],
    [
      " ÑÐ°ÐºÑÐ¾Ñ",
      "Ð¾Ð²"
    ],
    [
      " Ð¸Ð½",
      "Ð²Ðµ"
    ],
    [
      " Ð¸Ð½Ð²Ðµ",
      "ÑÑÐ¸"
    ],
    [
      " Ð¸Ð½Ð²ÐµÑÑÐ¸",
      "ÑÐ¸"
    ],
    [
      " Ð¸Ð½Ð²ÐµÑÑÐ¸ÑÐ¸",
      "Ð¹"
    ],
    [
      " Ð¿ÑÐ¾Ð¸",
      "Ð·Ð²Ð¾Ð´"
    ],
    [
      " Ð¿ÑÐ¾Ð¸Ð·Ð²Ð¾Ð´",
      "Ð¸"
    ],
    [
      " Ð¿ÑÐ¾Ð¸Ð·Ð²Ð¾Ð´Ð¸",
      "ÑÐµÐ»Ñ"
    ],
    [
      " Ð¿ÑÐ¾Ð¸Ð·Ð²Ð¾Ð´Ð¸ÑÐµÐ»Ñ",
      "Ð½Ð¾ÑÑÐ¸"
    ],
    [
      " Ñ",
      "ÑÑ"
    ],
    [
      " ÑÑÑ",
      "Ð´Ð°"
    ],
    [
      " ÑÐµ",
      "ÑÐ½"
    ],
    [
      " ÑÐµÑÐ½",
      "Ð¾Ð»Ð¾Ð³Ð¸ÑÐµÑÐº"
    ],
    [
      " ÑÐµÑÐ½Ð¾Ð»Ð¾Ð³Ð¸ÑÐµÑÐº",
      "Ð¾Ð³Ð¾"
    ],
    [
      " ÐºÐ°",
      "ÑÐµ"
    ],
    [
      " ÐºÐ°ÑÐµ",
      "ÑÑÐ²Ð°"
    ],
    [
      " ÑÐµÐ»Ð¾Ð²",
      "Ðµ"
    ],
    [
      " ÑÐµÐ»Ð¾Ð²Ðµ",
      "ÑÐµÑÐº"
    ],
    [
      " ÑÐµÐ»Ð¾Ð²ÐµÑÐµÑÐº",
      "Ð¾Ð³Ð¾"
    ],
    [
      " ÐºÐ°",
      "Ð¿Ð¸Ñ"
    ],
    [
      " ÐºÐ°Ð¿Ð¸Ñ",
      "Ð°Ð»"
    ],
    [
      " ÐºÐ°Ð¿Ð¸ÑÐ°Ð»",
      "Ð°"
    ],
    [
      "Ð",
      ""
    ],
    [
      "Ð",
      "Ð¸"
    ],
    [
      "ÐÐ¸",
      "ÑÐµ"
    ],
    [
      "ÐÐ¸ÑÐµ",
      "ÑÐ°"
    ],
    [
      "ÐÐ¸ÑÐµÑÐ°",
      "Ñ"
    ],
    [
      "ÐÐ¸ÑÐµÑÐ°Ñ",
      "ÑÑ"
    ],
    [
      "ÐÐ¸ÑÐµÑÐ°ÑÑÑ",
      "Ð½ÑÐ¹"
    ],
    [
      " ÑÐ·Ñ",
      "Ðº"
    ],
    [
      " Ð¾Ð±ÑÐ°Ð±Ð¾Ñ",
      "Ð°Ð½"
    ],
    [
      " Ð¾Ð±ÑÐ°Ð±Ð¾ÑÐ°Ð½",
      "Ð½Ð°Ñ"
    ],
    [
      " Ñ",
      "Ð¾ÑÐ¼Ð°"
    ],
    [
      " Ð¾Ð±Ñ",
      "ÐµÐ½"
    ],
    [
      " Ð¾Ð±ÑÐµÐ½",
      "Ð°Ñ"
    ],
    [
      " Ð¾Ð±ÑÐµÐ½Ð°Ñ",
      "Ð¾Ð´"
    ],
    [
      " Ð¾Ð±ÑÐµÐ½Ð°ÑÐ¾Ð´",
      "Ð½Ð¾Ð³Ð¾"
    ],
    [
      " Ð¾Ð±Ð»Ð°",
      "Ð´Ð°"
    ],
    [
      " Ð¾Ð±Ð»Ð°Ð´Ð°",
      "ÑÑÐ°Ñ"
    ],
    [
      " Ð¿",
      "Ð¸Ñ"
    ],
    [
      " Ð¿Ð¸Ñ",
      "Ñ"
    ],
    [
      " Ð¿Ð¸ÑÑ",
      "Ð¼ÐµÐ½"
    ],
    [
      " Ð¿Ð¸ÑÑÐ¼ÐµÐ½",
      "Ð½Ð¾"
    ],
    [
      " Ð·Ð°Ðº",
      "ÑÐµ"
    ],
    [
      " Ð·Ð°ÐºÑÐµ",
      "Ð¿"
    ],
    [
      " Ð·Ð°ÐºÑÐµÐ¿",
      "Ð»ÑÐ½"
    ],
    [
      " Ð·Ð°ÐºÑÐµÐ¿Ð»ÑÐ½",
      "Ð½ÑÐ¼Ð¸"
    ],
    [
      " Ð½",
      "Ð¾ÑÐ¼Ð°"
    ],
    [
      " Ð½Ð¾ÑÐ¼Ð°",
      "Ð¼Ð¸"
    ],
    [
      " ",
      "Ñ"
    ],
    [
      " Ñ",
      "Ð¸"
    ],
    [
      " ÑÐ¸",
      "ÑÐ¾Ðº"
    ],
    [
      " ÑÐ¸ÑÐ¾Ðº",
      "Ð¸Ð¼"
    ],
    [
      " Ð´Ð¸Ð°",
      "Ð¿"
    ],
    [
      " Ð´Ð¸Ð°Ð¿",
      "Ð°Ð·"
    ],
    [
      " Ð´Ð¸Ð°Ð¿Ð°Ð·",
      "Ð¾Ð½Ð¾Ð¼"
    ],
    [
      " ÑÑÐ½Ðº",
      "ÑÐ¸Ð¾Ð½"
    ],
    [
      " ÑÑÐ½ÐºÑÐ¸Ð¾Ð½",
      "Ð°Ð»Ñ"
    ],
    [
      " ÑÑÐ½ÐºÑÐ¸Ð¾Ð½Ð°Ð»Ñ",
      "Ð½ÑÑ"
    ],
    [
      " ",
      "ÑÑÐ¸"
    ],
    [
      " ÑÑÐ¸",
      "Ð»ÐµÐ¹"
    ],
    [
      "Ð",
      "ÑÑ"
    ],
    [
      "ÐÑÑ",
      "Ñ"
    ],
    [
      "ÐÑÑÑ",
      "Ð¾Ð½Ð¾Ð¼"
    ],
    [
      "ÐÑÑÑÐ¾Ð½Ð¾Ð¼",
      "Ð¸Ñ"
    ],
    [
      " Ð½Ð°",
      "Ñ"
    ],
    [
      " Ð½Ð°Ñ",
      "ÐºÐ°"
    ],
    [
      " Ð",
      "ÑÐµ"
    ],
    [
      " ÐÑÐµ",
      "Ð»ÐµÐ½"
    ],
    [
      " ÐÑÐµÐ»ÐµÐ½",
      "Ð½Ð¾Ð¹"
    ],
    [
      " Ð¸Ð·ÑÑÐ°",
      "ÑÑÐ°Ñ"
    ],
    [
      " ÑÐ°Ñ",
      "Ð¿Ð¾Ð»"
    ],
    [
      " ÑÐ°ÑÐ¿Ð¾Ð»",
      "Ð¾Ð¶ÐµÐ½Ð¸Ðµ"
    ],
    [
      " Ð´",
      "Ð²Ð¸Ð¶"
    ],
    [
      " Ð´Ð²Ð¸Ð¶",
      "ÐµÐ½Ð¸Ðµ"
    ],
    [
      " ÑÑ",
      "ÑÑÐºÑ"
    ],
    [
      " ÑÑÑÑÐºÑ",
      "Ñ"
    ],
    [
      " ÑÑÑÑÐºÑÑ",
      "ÑÑ"
    ],
    [
      " Ð¿ÑÐ¾",
      "Ð¸Ñ"
    ],
    [
      " Ð¿ÑÐ¾Ð¸Ñ",
      "ÑÐ¾Ð¶"
    ],
    [
      " Ð¿ÑÐ¾Ð¸ÑÑÐ¾Ð¶",
      "Ð´ÐµÐ½Ð¸Ðµ"
    ],
    [
      " Ð½ÐµÐ±",
      "Ðµ"
    ],
    [
      " Ð½ÐµÐ±Ðµ",
      "Ñ"
    ],
    [
      " Ð½ÐµÐ±ÐµÑ",
      "Ð½ÑÑ"
    ],
    [
      " ÑÐµ",
      "Ð»"
    ]
  ],
  "special_tokens": [
    "<PAD>",
    "<UNK>",
    "<BOS>",
    "<EOS>",
    "<MASK>"
  ]
}